{
  "version": "1.0",
  "truncation": null,
  "padding": null,
  "added_tokens": [
    {
      "id": 0,
      "content": "<|begin_of_text|>",
      "single_word": false,
      "lstrip": false,
      "rstrip": false,
      "normalized": false,
      "special": true
    },
    {
      "id": 1,
      "content": "<pad>",
      "single_word": false,
      "lstrip": false,
      "rstrip": false,
      "normalized": false,
      "special": true
    },
    {
      "id": 2,
      "content": "<|end_of_text|>",
      "single_word": false,
      "lstrip": false,
      "rstrip": false,
      "normalized": false,
      "special": true
    },
    {
      "id": 131301,
      "content": "<|eot_id|>",
      "single_word": false,
      "lstrip": false,
      "rstrip": false,
      "normalized": false,
      "special": true
    },
    {
      "id": 131302,
      "content": "<|start_header_id|>",
      "single_word": false,
      "lstrip": false,
      "rstrip": false,
      "normalized": false,
      "special": true
    },
    {
      "id": 131303,
      "content": "<|end_header_id|>",
      "single_word": false,
      "lstrip": false,
      "rstrip": false,
      "normalized": false,
      "special": true
    },
    {
      "id": 131304,
      "content": "<|eop_id|>",
      "single_word": false,
      "lstrip": false,
      "rstrip": false,
      "normalized": false,
      "special": true
    },
    {
      "id": 131305,
      "content": "<|begin_of_passage|>",
      "single_word": false,
      "lstrip": false,
      "rstrip": false,
      "normalized": false,
      "special": true
    },
    {
      "id": 131306,
      "content": "<|end_of_passage|>",
      "single_word": false,
      "lstrip": false,
      "rstrip": false,
      "normalized": false,
      "special": true
    },
    {
      "id": 131307,
      "content": "<img>",
      "single_word": false,
      "lstrip": false,
      "rstrip": false,
      "normalized": false,
      "special": true
    },
    {
      "id": 131308,
      "content": "</img>",
      "single_word": false,
      "lstrip": false,
      "rstrip": false,
      "normalized": false,
      "special": true
    },
    {
      "id": 131309,
      "content": "<ref>",
      "single_word": false,
      "lstrip": false,
      "rstrip": false,
      "normalized": false,
      "special": true
    },
    {
      "id": 131310,
      "content": "</ref>",
      "single_word": false,
      "lstrip": false,
      "rstrip": false,
      "normalized": false,
      "special": true
    },
    {
      "id": 131311,
      "content": "<box>",
      "single_word": false,
      "lstrip": false,
      "rstrip": false,
      "normalized": false,
      "special": true
    },
    {
      "id": 131312,
      "content": "</box>",
      "single_word": false,
      "lstrip": false,
      "rstrip": false,
      "normalized": false,
      "special": true
    },
    {
      "id": 131313,
      "content": "<quad>",
      "single_word": false,
      "lstrip": false,
      "rstrip": false,
      "normalized": false,
      "special": true
    },
    {
      "id": 131314,
      "content": "</quad>",
      "single_word": false,
      "lstrip": false,
      "rstrip": false,
      "normalized": false,
      "special": true
    },
    {
      "id": 131315,
      "content": "<imgpad>",
      "single_word": false,
      "lstrip": false,
      "rstrip": false,
      "normalized": false,
      "special": true
    },
    {
      "id": 131316,
      "content": "<table>",
      "single_word": false,
      "lstrip": false,
      "rstrip": false,
      "normalized": false,
      "special": true
    },
    {
      "id": 131317,
      "content": "</table>",
      "single_word": false,
      "lstrip": false,
      "rstrip": false,
      "normalized": false,
      "special": true
    },
    {
      "id": 131318,
      "content": "<tr>",
      "single_word": false,
      "lstrip": false,
      "rstrip": false,
      "normalized": false,
      "special": true
    },
    {
      "id": 131319,
      "content": "</tr>",
      "single_word": false,
      "lstrip": false,
      "rstrip": false,
      "normalized": false,
      "special": true
    },
    {
      "id": 131320,
      "content": "<td>",
      "single_word": false,
      "lstrip": false,
      "rstrip": false,
      "normalized": false,
      "special": true
    },
    {
      "id": 131321,
      "content": "</td>",
      "single_word": false,
      "lstrip": false,
      "rstrip": false,
      "normalized": false,
      "special": true
    },
    {
      "id": 131322,
      "content": "<chart>",
      "single_word": false,
      "lstrip": false,
      "rstrip": false,
      "normalized": false,
      "special": true
    },
    {
      "id": 131323,
      "content": "</chart>",
      "single_word": false,
      "lstrip": false,
      "rstrip": false,
      "normalized": false,
      "special": true
    },
    {
      "id": 131324,
      "content": "<caption>",
      "single_word": false,
      "lstrip": false,
      "rstrip": false,
      "normalized": false,
      "special": true
    },
    {
      "id": 131325,
      "content": "<thead>",
      "single_word": false,
      "lstrip": false,
      "rstrip": false,
      "normalized": false,
      "special": true
    },
    {
      "id": 131326,
      "content": "<tbody>",
      "single_word": false,
      "lstrip": false,
      "rstrip": false,
      "normalized": false,
      "special": true
    },
    {
      "id": 131327,
      "content": "<tfoot>",
      "single_word": false,
      "lstrip": false,
      "rstrip": false,
      "normalized": false,
      "special": true
    },
    {
      "id": 131328,
      "content": "<th>",
      "single_word": false,
      "lstrip": false,
      "rstrip": false,
      "normalized": false,
      "special": true
    },
    {
      "id": 131329,
      "content": "</caption>",
      "single_word": false,
      "lstrip": false,
      "rstrip": false,
      "normalized": false,
      "special": true
    },
    {
      "id": 131330,
      "content": "</thead>",
      "single_word": false,
      "lstrip": false,
      "rstrip": false,
      "normalized": false,
      "special": true
    },
    {
      "id": 131331,
      "content": "</tbody>",
      "single_word": false,
      "lstrip": false,
      "rstrip": false,
      "normalized": false,
      "special": true
    },
    {
      "id": 131332,
      "content": "</tfoot>\"",
      "single_word": false,
      "lstrip": false,
      "rstrip": false,
      "normalized": false,
      "special": true
    },
    {
      "id": 131333,
      "content": "</th>",
      "single_word": false,
      "lstrip": false,
      "rstrip": false,
      "normalized": false,
      "special": true
    },
    {
      "id": 131334,
      "content": "<h1>",
      "single_word": false,
      "lstrip": false,
      "rstrip": false,
      "normalized": false,
      "special": true
    },
    {
      "id": 131335,
      "content": "<h2>",
      "single_word": false,
      "lstrip": false,
      "rstrip": false,
      "normalized": false,
      "special": true
    },
    {
      "id": 131336,
      "content": "<h3>",
      "single_word": false,
      "lstrip": false,
      "rstrip": false,
      "normalized": false,
      "special": true
    },
    {
      "id": 131337,
      "content": "<h4>",
      "single_word": false,
      "lstrip": false,
      "rstrip": false,
      "normalized": false,
      "special": true
    },
    {
      "id": 131338,
      "content": "<h5>",
      "single_word": false,
      "lstrip": false,
      "rstrip": false,
      "normalized": false,
      "special": true
    },
    {
      "id": 131339,
      "content": "<h6>",
      "single_word": false,
      "lstrip": false,
      "rstrip": false,
      "normalized": false,
      "special": true
    },
    {
      "id": 131340,
      "content": "<blockquote>",
      "single_word": false,
      "lstrip": false,
      "rstrip": false,
      "normalized": false,
      "special": true
    },
    {
      "id": 131341,
      "content": "</h1>",
      "single_word": false,
      "lstrip": false,
      "rstrip": false,
      "normalized": false,
      "special": true
    },
    {
      "id": 131342,
      "content": "</h2>",
      "single_word": false,
      "lstrip": false,
      "rstrip": false,
      "normalized": false,
      "special": true
    },
    {
      "id": 131343,
      "content": "</h4>",
      "single_word": false,
      "lstrip": false,
      "rstrip": false,
      "normalized": false,
      "special": true
    },
    {
      "id": 131344,
      "content": "</h5>",
      "single_word": false,
      "lstrip": false,
      "rstrip": false,
      "normalized": false,
      "special": true
    },
    {
      "id": 131345,
      "content": "</h6>",
      "single_word": false,
      "lstrip": false,
      "rstrip": false,
      "normalized": false,
      "special": true
    },
    {
      "id": 131346,
      "content": "</blockquote>",
      "single_word": false,
      "lstrip": false,
      "rstrip": false,
      "normalized": false,
      "special": true
    },
    {
      "id": 131347,
      "content": "<strong>",
      "single_word": false,
      "lstrip": false,
      "rstrip": false,
      "normalized": false,
      "special": true
    },
    {
      "id": 131348,
      "content": "<em>",
      "single_word": false,
      "lstrip": false,
      "rstrip": false,
      "normalized": false,
      "special": true
    },
    {
      "id": 131349,
      "content": "<b>",
      "single_word": false,
      "lstrip": false,
      "rstrip": false,
      "normalized": false,
      "special": true
    },
    {
      "id": 131350,
      "content": "<i>",
      "single_word": false,
      "lstrip": false,
      "rstrip": false,
      "normalized": false,
      "special": true
    },
    {
      "id": 131351,
      "content": "<u>",
      "single_word": false,
      "lstrip": false,
      "rstrip": false,
      "normalized": false,
      "special": true
    },
    {
      "id": 131352,
      "content": "<sub>",
      "single_word": false,
      "lstrip": false,
      "rstrip": false,
      "normalized": false,
      "special": true
    },
    {
      "id": 131353,
      "content": "<sup>",
      "single_word": false,
      "lstrip": false,
      "rstrip": false,
      "normalized": false,
      "special": true
    },
    {
      "id": 131354,
      "content": "<code>",
      "single_word": false,
      "lstrip": false,
      "rstrip": false,
      "normalized": false,
      "special": true
    },
    {
      "id": 131355,
      "content": "</strong>",
      "single_word": false,
      "lstrip": false,
      "rstrip": false,
      "normalized": false,
      "special": true
    },
    {
      "id": 131356,
      "content": "</em>",
      "single_word": false,
      "lstrip": false,
      "rstrip": false,
      "normalized": false,
      "special": true
    },
    {
      "id": 131357,
      "content": "</b>",
      "single_word": false,
      "lstrip": false,
      "rstrip": false,
      "normalized": false,
      "special": true
    },
    {
      "id": 131358,
      "content": "</i>",
      "single_word": false,
      "lstrip": false,
      "rstrip": false,
      "normalized": false,
      "special": true
    },
    {
      "id": 131359,
      "content": "</u>",
      "single_word": false,
      "lstrip": false,
      "rstrip": false,
      "normalized": false,
      "special": true
    },
    {
      "id": 131360,
      "content": "</sub>",
      "single_word": false,
      "lstrip": false,
      "rstrip": false,
      "normalized": false,
      "special": true
    },
    {
      "id": 131361,
      "content": "</sup>",
      "single_word": false,
      "lstrip": false,
      "rstrip": false,
      "normalized": false,
      "special": true
    },
    {
      "id": 131362,
      "content": "</code>",
      "single_word": false,
      "lstrip": false,
      "rstrip": false,
      "normalized": false,
      "special": true
    },
    {
      "id": 131363,
      "content": "<|finetune_right_pad_id|>",
      "single_word": false,
      "lstrip": false,
      "rstrip": false,
      "normalized": false,
      "special": true
    },
    {
      "id": 131364,
      "content": "<|eom_id|>",
      "single_word": false,
      "lstrip": false,
      "rstrip": false,
      "normalized": false,
      "special": true
    },
    {
      "id": 131365,
      "content": "<|python_tag|>",
      "single_word": false,
      "lstrip": false,
      "rstrip": false,
      "normalized": false,
      "special": true
    },
    {
      "id": 131366,
      "content": "#@이름@#",
      "single_word": false,
      "lstrip": false,
      "rstrip": false,
      "normalized": false,
      "special": true
    },
    {
      "id": 131367,
      "content": "#@ID@#",
      "single_word": false,
      "lstrip": false,
      "rstrip": false,
      "normalized": false,
      "special": true
    },
    {
      "id": 131368,
      "content": "#@주민번호@#",
      "single_word": false,
      "lstrip": false,
      "rstrip": false,
      "normalized": false,
      "special": true
    },
    {
      "id": 131369,
      "content": "#@이메일@#",
      "single_word": false,
      "lstrip": false,
      "rstrip": false,
      "normalized": false,
      "special": true
    },
    {
      "id": 131370,
      "content": "#@계좌번호@#",
      "single_word": false,
      "lstrip": false,
      "rstrip": false,
      "normalized": false,
      "special": true
    },
    {
      "id": 131371,
      "content": "#@전화번호@#",
      "single_word": false,
      "lstrip": false,
      "rstrip": false,
      "normalized": false,
      "special": true
    },
    {
      "id": 131372,
      "content": "#@주소@#",
      "single_word": false,
      "lstrip": false,
      "rstrip": false,
      "normalized": false,
      "special": true
    },
    {
      "id": 131373,
      "content": "#@자동차번호@#",
      "single_word": false,
      "lstrip": false,
      "rstrip": false,
      "normalized": false,
      "special": true
    },
    {
      "id": 131374,
      "content": "#@사업자등록번호@#",
      "single_word": false,
      "lstrip": false,
      "rstrip": false,
      "normalized": false,
      "special": true
    },
    {
      "id": 131375,
      "content": "#@자동차운전면허번호@#",
      "single_word": false,
      "lstrip": false,
      "rstrip": false,
      "normalized": false,
      "special": true
    },
    {
      "id": 131376,
      "content": "#@여권번호@#",
      "single_word": false,
      "lstrip": false,
      "rstrip": false,
      "normalized": false,
      "special": true
    },
    {
      "id": 131377,
      "content": "#@외국인등록번호@#",
      "single_word": false,
      "lstrip": false,
      "rstrip": false,
      "normalized": false,
      "special": true
    },
    {
      "id": 131378,
      "content": "#@건보번호@#",
      "single_word": false,
      "lstrip": false,
      "rstrip": false,
      "normalized": false,
      "special": true
    },
    {
      "id": 131379,
      "content": "#@신용카드번호@#",
      "single_word": false,
      "lstrip": false,
      "rstrip": false,
      "normalized": false,
      "special": true
    },
    {
      "id": 131380,
      "content": "#@IP@#",
      "single_word": false,
      "lstrip": false,
      "rstrip": false,
      "normalized": false,
      "special": true
    },
    {
      "id": 131381,
      "content": "#@MAC주소@#",
      "single_word": false,
      "lstrip": false,
      "rstrip": false,
      "normalized": false,
      "special": true
    },
    {
      "id": 131382,
      "content": "#@SNS계정@#",
      "single_word": false,
      "lstrip": false,
      "rstrip": false,
      "normalized": false,
      "special": true
    },
    {
      "id": 131383,
      "content": "#@통관번호#",
      "single_word": false,
      "lstrip": false,
      "rstrip": false,
      "normalized": false,
      "special": true
    }
  ],
  "normalizer": null,
  "pre_tokenizer": {
    "type": "Sequence",
    "pretokenizers": [
      {
        "type": "Split",
        "pattern": {
          "Regex": "(?i:'s|'t|'re|'ve|'m|'ll|'d)|[^\\r\\n\\p{L}\\p{N}]?\\p{L}+|\\p{N}{1,3}| ?[^\\s\\p{L}\\p{N}]+[\\r\\n]*|\\s*[\\r\\n]+|\\s+(?!\\S)|\\s+"
        },
        "behavior": "Removed",
        "invert": true
      },
      {
        "type": "ByteLevel",
        "add_prefix_space": false,
        "trim_offsets": true,
        "use_regex": false
      }
    ]
  },
  "post_processor": null,
  "decoder": {
    "type": "ByteLevel",
    "add_prefix_space": true,
    "trim_offsets": true,
    "use_regex": true
  },
  "model": {
    "type": "BPE",
    "dropout": null,
    "unk_token": null,
    "continuing_subword_prefix": "",
    "end_of_word_suffix": "",
    "fuse_unk": false,
    "byte_fallback": false,
    "ignore_merges": false,
    "vocab": {
      "<|begin_of_text|>": 0,
      "<pad>": 1,
      "<|end_of_text|>": 2,
      "!": 3,
      "\"": 4,
      "#": 5,
      "$": 6,
      "%": 7,
      "&": 8,
      "'": 9,
      "(": 10,
      ")": 11,
      "*": 12,
      "+": 13,
      ",": 14,
      "-": 15,
      ".": 16,
      "/": 17,
      "0": 18,
      "1": 19,
      "2": 20,
      "3": 21,
      "4": 22,
      "5": 23,
      "6": 24,
      "7": 25,
      "8": 26,
      "9": 27,
      ":": 28,
      ";": 29,
      "<": 30,
      "=": 31,
      ">": 32,
      "?": 33,
      "@": 34,
      "A": 35,
      "B": 36,
      "C": 37,
      "D": 38,
      "E": 39,
      "F": 40,
      "G": 41,
      "H": 42,
      "I": 43,
      "J": 44,
      "K": 45,
      "L": 46,
      "M": 47,
      "N": 48,
      "O": 49,
      "P": 50,
      "Q": 51,
      "R": 52,
      "S": 53,
      "T": 54,
      "U": 55,
      "V": 56,
      "W": 57,
      "X": 58,
      "Y": 59,
      "Z": 60,
      "[": 61,
      "\\": 62,
      "]": 63,
      "^": 64,
      "_": 65,
      "`": 66,
      "a": 67,
      "b": 68,
      "c": 69,
      "d": 70,
      "e": 71,
      "f": 72,
      "g": 73,
      "h": 74,
      "i": 75,
      "j": 76,
      "k": 77,
      "l": 78,
      "m": 79,
      "n": 80,
      "o": 81,
      "p": 82,
      "q": 83,
      "r": 84,
      "s": 85,
      "t": 86,
      "u": 87,
      "v": 88,
      "w": 89,
      "x": 90,
      "y": 91,
      "z": 92,
      "{": 93,
      "|": 94,
      "}": 95,
      "~": 96,
      "¡": 97,
      "¢": 98,
      "£": 99,
      "¤": 100,
      "¥": 101,
      "¦": 102,
      "§": 103,
      "¨": 104,
      "©": 105,
      "ª": 106,
      "«": 107,
      "¬": 108,
      "®": 109,
      "¯": 110,
      "°": 111,
      "±": 112,
      "²": 113,
      "³": 114,
      "´": 115,
      "µ": 116,
      "¶": 117,
      "·": 118,
      "¸": 119,
      "¹": 120,
      "º": 121,
      "»": 122,
      "¼": 123,
      "½": 124,
      "¾": 125,
      "¿": 126,
      "À": 127,
      "Á": 128,
      "Â": 129,
      "Ã": 130,
      "Ä": 131,
      "Å": 132,
      "Æ": 133,
      "Ç": 134,
      "È": 135,
      "É": 136,
      "Ê": 137,
      "Ë": 138,
      "Ì": 139,
      "Í": 140,
      "Î": 141,
      "Ï": 142,
      "Ð": 143,
      "Ñ": 144,
      "Ò": 145,
      "Ó": 146,
      "Ô": 147,
      "Õ": 148,
      "Ö": 149,
      "×": 150,
      "Ø": 151,
      "Ù": 152,
      "Ú": 153,
      "Û": 154,
      "Ü": 155,
      "Ý": 156,
      "Þ": 157,
      "ß": 158,
      "à": 159,
      "á": 160,
      "â": 161,
      "ã": 162,
      "ä": 163,
      "å": 164,
      "æ": 165,
      "ç": 166,
      "è": 167,
      "é": 168,
      "ê": 169,
      "ë": 170,
      "ì": 171,
      "í": 172,
      "î": 173,
      "ï": 174,
      "ð": 175,
      "ñ": 176,
      "ò": 177,
      "ó": 178,
      "ô": 179,
      "õ": 180,
      "ö": 181,
      "÷": 182,
      "ø": 183,
      "ù": 184,
      "ú": 185,
      "û": 186,
      "ü": 187,
      "ý": 188,
      "þ": 189,
      "ÿ": 190,
      "Ā": 191,
      "ā": 192,
      "Ă": 193,
      "ă": 194,
      "Ą": 195,
      "ą": 196,
      "Ć": 197,
      "ć": 198,
      "Ĉ": 199,
      "ĉ": 200,
      "Ċ": 201,
      "ċ": 202,
      "Č": 203,
      "č": 204,
      "Ď": 205,
      "ď": 206,
      "Đ": 207,
      "đ": 208,
      "Ē": 209,
      "ē": 210,
      "Ĕ": 211,
      "ĕ": 212,
      "Ė": 213,
      "ė": 214,
      "Ę": 215,
      "ę": 216,
      "Ě": 217,
      "ě": 218,
      "Ĝ": 219,
      "ĝ": 220,
      "Ğ": 221,
      "ğ": 222,
      "Ġ": 223,
      "ġ": 224,
      "Ģ": 225,
      "ģ": 226,
      "Ĥ": 227,
      "ĥ": 228,
      "Ħ": 229,
      "ħ": 230,
      "Ĩ": 231,
      "ĩ": 232,
      "Ī": 233,
      "ī": 234,
      "Ĭ": 235,
      "ĭ": 236,
      "Į": 237,
      "į": 238,
      "İ": 239,
      "ı": 240,
      "Ĳ": 241,
      "ĳ": 242,
      "Ĵ": 243,
      "ĵ": 244,
      "Ķ": 245,
      "ķ": 246,
      "ĸ": 247,
      "Ĺ": 248,
      "ĺ": 249,
      "Ļ": 250,
      "ļ": 251,
      "Ľ": 252,
      "ľ": 253,
      "Ŀ": 254,
      "ŀ": 255,
      "Ł": 256,
      "ł": 257,
      "Ń": 258,
      "ëĭ": 259,
      "ìĹ": 260,
      "Ġí": 261,
      "Ŀ´": 262,
      "ìĿ´": 263,
      "ìŀ": 264,
      "ìł": 265,
      "ê³": 266,
      "ëĭ¤": 267,
      "ê°": 268,
      "ĠìĹ": 269,
      "ëĬ": 270,
      "ìĦ": 271,
      "ëĬĶ": 272,
      "ì§": 273,
      "ĠìĹĲ": 274,
      "ìĭ": 275,
      "ĠìĿ´": 276,
      "ìķ": 277,
      "ê²": 278,
      "Ŀĺ": 279,
      "ìĿĺ": 280,
      "ĿĦ": 281,
      "ìĿĦ": 282,
      "ê¸": 283,
      "ë¡": 284,
      "ìľ": 285,
      "ķĺ": 286,
      "Ġê°": 287,
      "ĠìĿĦ": 288,
      "ĠìĿĺ": 289,
      "ëı": 290,
      "ë°": 291,
      "ì§Ģ": 292,
      "ê³ł": 293,
      "Ġìŀ": 294,
      "ë¡ľ": 295,
      "ë§": 296,
      "ķľ": 297,
      "ìĤ": 298,
      "ë¥": 299,
      "ëĤ": 300,
      "íķĺ": 301,
      "ìļ": 302,
      "ê¸°": 303,
      "ëĵ": 304,
      "Ġìł": 305,
      "êµ": 306,
      "ìĿ": 307,
      "ĠìĿ": 308,
      "Ġë": 309,
      "ìĦľ": 310,
      "ìĸ": 311,
      "íķľ": 312,
      "Īëĭ¤": 313,
      "ìĪ": 314,
      "Ġìľ": 315,
      "ìĥ": 316,
      "ë¥¼": 317,
      "ë¦": 318,
      "Ġë¥¼": 319,
      "Ġê°Ģ": 320,
      "ìĤ¬": 321,
      "ëıĦ": 322,
      "ìĺ": 323,
      "ìĬ": 324,
      "Ġë°": 325,
      "ĮĢ": 326,
      "ìĭľ": 327,
      "ĠëĬĶ": 328,
      "Ġê²": 329,
      "ìĪĺ": 330,
      "ìĽ": 331,
      "ķ´": 332,
      "Ġìķ": 333,
      "Ġê³": 334,
      "ê·": 335,
      "Ġë§": 336,
      "ĠìĿĢ": 337,
      "ìĸ´": 338,
      "ë¦¬": 339,
      "ëł": 340,
      "ë©": 341,
      "íķ´": 342,
      "¶Ģ": 343,
      "ì²": 344,
      "ìĬ¤": 345,
      "ìĨ": 346,
      "ìĿ¸": 347,
      "ìĥģ": 348,
      "íĸ": 349,
      "ëĤĺ": 350,
      "¼ë¡ľ": 351,
      "ìŀĲ": 352,
      "Ŀ¼": 353,
      "Ġìľ¼ë¡ľ": 354,
      "ëĵ¤": 355,
      "ĠëıĦ": 356,
      "³´": 357,
      "ì£": 358,
      "ëĲ": 359,
      "ĠìĪĺ": 360,
      "ë¬": 361,
      "ëĿ¼": 362,
      "ìĻ": 363,
      "ìĽĲ": 364,
      "ì¹": 365,
      "ì¡": 366,
      "íĻ": 367,
      "ê·¸": 368,
      "ì£¼": 369,
      "ĠìĹĲìĦľ": 370,
      "ì¤": 371,
      "ì°": 372,
      "Ġìĺ": 373,
      "ĠëĮĢ": 374,
      "ìłķ": 375,
      "Ġë¡ľ": 376,
      "ìĦ±": 377,
      "ìŀ¥": 378,
      "ĠìĤ¬": 379,
      "êµŃ": 380,
      "ĠìŀĪ": 381,
      "ê´": 382,
      "ê±": 383,
      "íĺ": 384,
      "ëŀ": 385,
      "Ġê³¼": 386,
      "ëŁ": 387,
      "ì¶": 388,
      "êµ¬": 389,
      "ê²Į": 390,
      "ëĮĢ": 391,
      "ë©´": 392,
      "ëª": 393,
      "ìłģ": 394,
      "ë¶Ģ": 395,
      "ê°Ģ": 396,
      "ĠìĻ": 397,
      "Ġê²ĥ": 398,
      "Ġê¸°": 399,
      "ëį": 400,
      "ë²": 401,
      "ëıĻ": 402,
      "Ġì§Ģ": 403,
      "ìĿ¼": 404,
      "ìĨĮ": 405,
      "Ġëª": 406,
      "ì¡°": 407,
      "Ġìĭ": 408,
      "ĠìĦ": 409,
      "ëħ": 410,
      "ĠìłĦ": 411,
      "ìłľ": 412,
      "¹Ħ": 413,
      "ê´Ģ": 414,
      "ìļ©": 415,
      "ìķĦ": 416,
      "Ġíķ": 417,
      "ļĮ": 418,
      "íĬ": 419,
      "ì¤ĳ": 420,
      "ìļ°": 421,
      "Ġìłľ": 422,
      "ĠëĤ": 423,
      "íĥ": 424,
      "íĻĶ": 425,
      "Ġë³´": 426,
      "íķĺëĬĶ": 427,
      "ìļĶ": 428,
      "ë³": 429,
      "Ġëĵ": 430,
      "ì§Ħ": 431,
      "ìłĦ": 432,
      "ë¯": 433,
      "Ġíķĺ": 434,
      "Ġìĭľ": 435,
      "Ġê·¸": 436,
      "Ġíķľ": 437,
      "ìĿĢ": 438,
      "ê¹": 439,
      "ĠìŀĪëĭ¤": 440,
      "ì¹ĺ": 441,
      "ëĭĪëĭ¤": 442,
      "ĠìĻĢ": 443,
      "íĸĪëĭ¤": 444,
      "ĠíĻ": 445,
      "íĬ¸": 446,
      "íĦ": 447,
      "Ġë¬": 448,
      "ĠìķĦ": 449,
      "Ġëĭ": 450,
      "Ĩµ": 451,
      "ìĥĿ": 452,
      "Ġìłķ": 453,
      "Ġíĺ": 454,
      "ë§Į": 455,
      "Ġìĥģ": 456,
      "íļĮ": 457,
      "Ġë¶Ģ": 458,
      "ķł": 459,
      "íķł": 460,
      "¶Ħ": 461,
      "ìĹħ": 462,
      "ìĹ¬": 463,
      "ë³´": 464,
      "íĦ°": 465,
      "ëħĦ": 466,
      "Ġëĵ±": 467,
      "âĢ": 468,
      "ê±°": 469,
      "ĠëĤĺ": 470,
      "ĠìľĦ": 471,
      "ë¬¸": 472,
      "ìĤ°": 473,
      "ëªħ": 474,
      "íķĺê³ł": 475,
      "ëĲĺ": 476,
      "ĠìŀĲ": 477,
      "ì²´": 478,
      "ìĿ´ëĭ¤": 479,
      "ë©°": 480,
      "ê³Ħ": 481,
      "Ġëĭ¤": 482,
      "Ġë³": 483,
      "Ġê³ł": 484,
      "Ġì°": 485,
      "Ġê²½": 486,
      "ëĵľ": 487,
      "êµĲ": 488,
      "Ġì¤ĳ": 489,
      "ĠìĿ¸": 490,
      "ëĲľ": 491,
      "ì¦": 492,
      "ëŁ¬": 493,
      "íĶ": 494,
      "Ġë§Į": 495,
      "20": 496,
      "ì¢": 497,
      "Ġê³µ": 498,
      "Ġì¶": 499,
      "ìĭł": 500,
      "ê°Ħ": 501,
      "Ġì£¼": 502,
      "ë¹Ħ": 503,
      "ĠìĿ¼": 504,
      "ê³µ": 505,
      "ëĭĪ": 506,
      "íĮ": 507,
      "ê¸Ī": 508,
      "ĠëĲ": 509,
      "ë£": 510,
      "ìļ´": 511,
      "Ġíı": 512,
      "ì´": 513,
      "Ġê¹": 514,
      "ìĬµ": 515,
      "ìķ¼": 516,
      "ìľĦ": 517,
      "íı": 518,
      "íĸī": 519,
      "Ġê´Ģ": 520,
      "Ġì²": 521,
      "Ġë²": 522,
      "Ġë¯": 523,
      "Ġëį": 524,
      "ĠëĤ´": 525,
      "ëį°": 526,
      "Ġëª¨": 527,
      "ìŀ¬": 528,
      "ĽĦ": 529,
      "ìĦł": 530,
      "Ġìľł": 531,
      "ëĭ¨": 532,
      "ëł¤": 533,
      "ëł¥": 534,
      "ìĦ¸": 535,
      "Ġì¡°": 536,
      "ĠìŀĪëĬĶ": 537,
      "ë¬´": 538,
      "Ġì§": 539,
      "ëĭ¹": 540,
      "ĠëĶ": 541,
      "íŀ": 542,
      "Ġë°ľ": 543,
      "Ġíĸ": 544,
      "ĠìķĬ": 545,
      "ê±´": 546,
      "ķĮ": 547,
      "Ġêµ¬": 548,
      "ĠíĮ": 549,
      "ê°ľ": 550,
      "ìĸĳ": 551,
      "ķĻ": 552,
      "íķĻ": 553,
      "ĳľ": 554,
      "ĠíĶ": 555,
      "ìķĪ": 556,
      "Ġë¹Ħ": 557,
      "ĠìĨĮ": 558,
      "ì½": 559,
      "ë¯¸": 560,
      "ìĽĶ": 561,
      "ìĭĿ": 562,
      "Ġê°ľ": 563,
      "ê²½": 564,
      "ë¶Ħ": 565,
      "ĠìĹ°": 566,
      "Ġíķ´": 567,
      "ĠêµŃ": 568,
      "ìĨį": 569,
      "ĠìĦľ": 570,
      "íķľëĭ¤": 571,
      "ìľł": 572,
      "íģ": 573,
      "ìµ": 574,
      "ìµľ": 575,
      "Ġë°©": 576,
      "íŀĪ": 577,
      "ì±": 578,
      "ê³¼": 579,
      "ê¶": 580,
      "Ġë§Ī": 581,
      "Ġìĺ¤": 582,
      "ë¥´": 583,
      "Ġìĸ´": 584,
      "ĠìĹĨ": 585,
      "ĠíĨµ": 586,
      "ë¯¼": 587,
      "ìĬµëĭĪëĭ¤": 588,
      "ĠìĦł": 589,
      "ë§Ī": 590,
      "ìĭ¤": 591,
      "Â·": 592,
      "ĠëķĮ": 593,
      "íĨµ": 594,
      "ìŀħ": 595,
      "ìĹŃ": 596,
      "ë¬¼": 597,
      "ìľ¼": 598,
      "ëĦ": 599,
      "ìĹ°": 600,
      "10": 601,
      "..": 602,
      "ì¸": 603,
      "ìĺģ": 604,
      "ĠìĥĿ": 605,
      "Ġë¶": 606,
      "ëĤ´": 607,
      "Ġë¯¸": 608,
      "Ġìĭł": 609,
      "íĺ¸": 610,
      "Ġë§Ĳ": 611,
      "ĠìĹ¬": 612,
      "ĺĲ": 613,
      "ķ©": 614,
      "íķ©": 615,
      "ì§Ģë§Į": 616,
      "ĳĲ": 617,
      "ê¶Į": 618,
      "ëĤľ": 619,
      "Ġì¢": 620,
      "ë¡Ŀ": 621,
      "Ġë°Ķ": 622,
      "ìĿĮ": 623,
      "ìĹĪëĭ¤": 624,
      "Ġìĭ¤": 625,
      "ì°¨": 626,
      "Ġìĺģ": 627,
      "ë²ķ": 628,
      "Ġíĥ": 629,
      "Ġëħ": 630,
      "ë°©": 631,
      "ìĺ¤": 632,
      "ê°ģ": 633,
      "Ġë°ı": 634,
      "ĠâĢ": 635,
      "ĠëıĻ": 636,
      "ëŀĺ": 637,
      "ëĬ¥": 638,
      "íĥĢ": 639,
      "íİ": 640,
      "Ġìļ°": 641,
      "ë¥¸": 642,
      "ìŀĳ": 643,
      "ì¦Ŀ": 644,
      "Ġìµľ": 645,
      "ĠìĺĪ": 646,
      "ĠìķĪ": 647,
      "ì¶ľ": 648,
      "ĠëĶ°": 649,
      "íĳľ": 650,
      "íĴ": 651,
      "ëįĺ": 652,
      "ëĶ": 653,
      "ĠíĬ": 654,
      "ìłģìĿ¸": 655,
      "Įì§Ģ": 656,
      "ĠìĬ¤": 657,
      "ëŀĮ": 658,
      "Ġë¶Ħ": 659,
      "ì¤Ģ": 660,
      "íĹ": 661,
      "Ġë¬´": 662,
      "ë°ľ": 663,
      "ĠìĦ¸": 664,
      "Ġì´": 665,
      "Ġê·": 666,
      "íħ": 667,
      "íĤ": 668,
      "âĶ": 669,
      "ìŀĦ": 670,
      "ì»": 671,
      "Ġìŀ¥": 672,
      "íķĺìĹ¬": 673,
      "Ġê²°": 674,
      "ĠìĹĲê²Į": 675,
      "Ġë¬¸": 676,
      "ë³¸": 677,
      "ê¸ī": 678,
      "ĠìĦ±": 679,
      "ìĭ¬": 680,
      "ìļ¸": 681,
      "ëłĪ": 682,
      "íģ¬": 683,
      "ë°ĺ": 684,
      "íķĺê²Į": 685,
      "Ġê¹Įì§Ģ": 686,
      "ì½Ķ": 687,
      "Ġì§Ħ": 688,
      "ìħ": 689,
      "ìłĲ": 690,
      "ìĹĪ": 691,
      "íĶĦ": 692,
      "ĠëĨ": 693,
      "Ġê°Ļ": 694,
      "ëª¨": 695,
      "ìĿ´ëĿ¼": 696,
      "ë£Į": 697,
      "íĸĪ": 698,
      "Ġê°ķ": 699,
      "Ġê±°": 700,
      "Ġë©": 701,
      "ĠëĲĺ": 702,
      "íĴĪ": 703,
      "ĠëĮĢíķľ": 704,
      "ë©´ìĦľ": 705,
      "ĠëįĶ": 706,
      "ĠìĤ": 707,
      "ĠëĦ": 708,
      "ĠíĻķ": 709,
      "Ġëı": 710,
      "ìĪł": 711,
      "ĠìĽĲ": 712,
      "ì§ģ": 713,
      "ìķĺ": 714,
      "Ġëĭ¨": 715,
      "ì¹´": 716,
      "íķĺê¸°": 717,
      "íĭ": 718,
      "ĠêµĲ": 719,
      "Ġíģ": 720,
      "íı¬": 721,
      "íĽĦ": 722,
      "ì²Ń": 723,
      "ë¦Ħ": 724,
      "ĠíĺĦ": 725,
      "ìĺĢ": 726,
      "ĠìĦ¤": 727,
      "Ī¬": 728,
      "íĺķ": 729,
      "Ġìŀ¬": 730,
      "ë¶": 731,
      "Ġíı¬": 732,
      "Ĩł": 733,
      "Ġë¶Ī": 734,
      "Ġìĸ": 735,
      "Ġê°Ĳ": 736,
      "Ġì¶Ķ": 737,
      "ê²°": 738,
      "ĠíĽĦ": 739,
      "Ġìłģ": 740,
      "Ġë°ĺ": 741,
      "Ġíķľëĭ¤": 742,
      "Ġë§İ": 743,
      "ìĦĿ": 744,
      "ķ¨": 745,
      "íķ¨": 746,
      "ĠìľĦíķ´": 747,
      "ê²©": 748,
      "Ġë°Ľ": 749,
      "Ġê³Ħ": 750,
      "ì±ħ": 751,
      "ìĶ": 752,
      "ê´ĳ": 753,
      "ĠëĺĲ": 754,
      "ëł¨": 755,
      "ë²Ī": 756,
      "ì§Ī": 757,
      "íĥľ": 758,
      "Ġë³¸": 759,
      "êµ°": 760,
      "ì¼": 761,
      "ë¸": 762,
      "Ġëħ¸": 763,
      "Ġì°¨": 764,
      "201": 765,
      "íĺĦ": 766,
      "ìĦ¤": 767,
      "ì²ľ": 768,
      "ë¦°": 769,
      "ĠìķĮ": 770,
      "Ġë°°": 771,
      "ĠíĬ¹": 772,
      "Ķëĭ¤": 773,
      "ê°Ĳ": 774,
      "Ġëĭ¹": 775,
      "ĠíļĮ": 776,
      "Ġëĵ¤": 777,
      "19": 778,
      "ì¢ħ": 779,
      "ìłĢ": 780,
      "ëł¹": 781,
      "ë¡ł": 782,
      "Ġë§¤": 783,
      "ĠìĤ¬ëŀĮ": 784,
      "ìĬ¹": 785,
      "Ġìŀħ": 786,
      "Ġì²ĺ": 787,
      "ê»": 788,
      "ī´": 789,
      "Ġê²½ìļ°": 790,
      "ëĶĶ": 791,
      "Ġíİ": 792,
      "ìķ½": 793,
      "00": 794,
      "ê²ł": 795,
      "ëĲĺëĬĶ": 796,
      "ĠìłĢ": 797,
      "ëĳĲ": 798,
      "ë§¤": 799,
      "ĠìĤ¬ìļ©": 800,
      "ëŁ°": 801,
      "ìĺĪ": 802,
      "Ġì¶ľ": 803,
      "ëŁī": 804,
      "ë²Ħ": 805,
      "ĠíĨµíķ´": 806,
      "Ġìĥ": 807,
      "ë£¨": 808,
      "íĹĺ": 809,
      "ëĭ¬": 810,
      "ëĵł": 811,
      "íĮĮ": 812,
      "ĠíĶĦ": 813,
      "Ġíķł": 814,
      "íķĺëĭ¤": 815,
      "íĸ¥": 816,
      "Ġìŀĳ": 817,
      "Ġê¸": 818,
      "Ġë¶ĢíĦ°": 819,
      "ë°Ķ": 820,
      "ĠìļĶ": 821,
      "âĶĢ": 822,
      "ê·¼": 823,
      "Ġê±´": 824,
      "ĠíķĦ": 825,
      "íĮĲ": 826,
      "Ġë¹": 827,
      "ìĨ¡": 828,
      "ìľ¡": 829,
      "íĻĺ": 830,
      "ĠëĤ¨": 831,
      "ĠìĹŃ": 832,
      "Ġì§ĢëĤľ": 833,
      "íĤ¤": 834,
      "ìĸµ": 835,
      "ĠëķĮë¬¸": 836,
      "ĠâĢĺ": 837,
      "Ġíķ¨": 838,
      "ê»ĺ": 839,
      "Ġìĺ¬": 840,
      "âĢĿ": 841,
      "íĨł": 842,
      "íļ": 843,
      "Ġë³´ëĭ¤": 844,
      "ê°ķ": 845,
      "Ġìĥģê¸°": 846,
      "Ġì°¸": 847,
      "ëıĦë¡Ŀ": 848,
      "Ġê¹Ģ": 849,
      "Ġíĸī": 850,
      "ëįĶ": 851,
      "Ġì§ģ": 852,
      "Ġë¬¼": 853,
      "ĠíķĺëĬĶ": 854,
      "ĠìĹ´": 855,
      "ë³Ħ": 856,
      "ĠíķľêµŃ": 857,
      "ëĤł": 858,
      "ì¸¡": 859,
      "ê¹Į": 860,
      "ķŃ": 861,
      "íķŃ": 862,
      "Ġíıī": 863,
      "ëĲľëĭ¤": 864,
      "ëĤ¨": 865,
      "Ĳëĭ¤": 866,
      "ìĪľ": 867,
      "ë¥ĺ": 868,
      "ĠëĬ": 869,
      "Ġì¢ĭ": 870,
      "ë³µ": 871,
      "Ġë³Ģ": 872,
      "ĠíĶ¼": 873,
      "ĠíĮĮ": 874,
      "ëŀĢ": 875,
      "ĠâĢľ": 876,
      "ĠëĳĲ": 877,
      "ĠíĻľ": 878,
      "ëª©": 879,
      "ìĽĮ": 880,
      "íķĺì§Ģ": 881,
      "Ġëĭ¬": 882,
      "íĭ°": 883,
      "Ġë°Ŀ": 884,
      "Ġë¨": 885,
      "Ġì»": 886,
      "Ġìļ´": 887,
      "Ġëį°": 888,
      "ì·": 889,
      "ë¦½": 890,
      "âĢĻ": 891,
      "ĠìķĦëĭĪ": 892,
      "ìĺĢëĭ¤": 893,
      "Ġíĺķ": 894,
      "ì¡´": 895,
      "Ġì¦Ŀ": 896,
      "ìĻ¸": 897,
      "ĠëĮĢíķ´": 898,
      "ĠìĻ¸": 899,
      "ëĿ¼ê³ł": 900,
      "íİ¸": 901,
      "íĶ¼": 902,
      "ĠíķĻ": 903,
      "ĠëĪ": 904,
      "Ġì¹": 905,
      "Ġê¸Ī": 906,
      "íĥĿ": 907,
      "Ġê°ģ": 908,
      "ì·¨": 909,
      "Ġëª»": 910,
      "ìľ¼ë©°": 911,
      "ìĶ¨": 912,
      "ëĬĶëį°": 913,
      "Ġê²ĥìĿ´ëĭ¤": 914,
      "ë°°": 915,
      "ī´ìĬ¤": 916,
      "ì±Ħ": 917,
      "ĠíĿ": 918,
      "ë¦¬ê³ł": 919,
      "ë¸Į": 920,
      "ĠìľĦíķľ": 921,
      "Ġì§ĳ": 922,
      "ìķĺëĭ¤": 923,
      "ĠìĥĿê°ģ": 924,
      "ì¡±": 925,
      "Ġëªħ": 926,
      "11": 927,
      "ĠëĨĴ": 928,
      "ĠëĿ¼": 929,
      "Ġìļ°ë¦¬": 930,
      "ĠëĲľ": 931,
      "ë¨": 932,
      "ë§Ŀ": 933,
      "ĠìłĲ": 934,
      "íĻ©": 935,
      "ĠíĻĶ": 936,
      "ìŀħëĭĪëĭ¤": 937,
      "ĠíĪ¬": 938,
      "Ġê°ĢëĬ¥": 939,
      "ëŁ¼": 940,
      "ĠëĶ°ëĿ¼": 941,
      "ëĲł": 942,
      "30": 943,
      "ì°°": 944,
      "ì§ĳ": 945,
      "ĠìĥĪ": 946,
      "12": 947,
      "ëħ¸": 948,
      "ĠíĮĲ": 949,
      "Ġê²Į": 950,
      "ëĥ": 951,
      "íĿ": 952,
      "ëĸ": 953,
      "ìĨĲ": 954,
      "ĠìĤ°": 955,
      "ëĵ±": 956,
      "ìĹĲ": 957,
      "Ġê°ĻìĿĢ": 958,
      "ì¶ķ": 959,
      "ëĺĲ": 960,
      "Ġìĸĳ": 961,
      "Ġê²Ģ": 962,
      "Ġê°Ħ": 963,
      "ĠíĹ": 964,
      "Ġë°Ŀíĺ": 965,
      "ĠíĸĪëĭ¤": 966,
      "ìłĪ": 967,
      "Ġì½Ķ": 968,
      "ĠíķĦìļĶ": 969,
      "Ġëģ": 970,
      "Ġë¬¸ìłľ": 971,
      "ì²ĺ": 972,
      "Ġíķ¨ê»ĺ": 973,
      "ë°ķ": 974,
      "ì¦Ī": 975,
      "âĶĢâĶĢ": 976,
      "Ġíķ©": 977,
      "Ġì´Ī": 978,
      "ëĭ´": 979,
      "Ġëĭ¤ë¥¸": 980,
      "Ġëª©": 981,
      "ìĽĢ": 982,
      "ëĭ¤ëĬĶ": 983,
      "ĠìŀĪìĬµëĭĪëĭ¤": 984,
      "ìŀĲëĵ¤": 985,
      "ĠìĤ´": 986,
      "ë¶ģ": 987,
      "Ġì²Ń": 988,
      "ìĸ¸": 989,
      "ìĺ¨": 990,
      "200": 991,
      "Ġë¸": 992,
      "Ġë²ķ": 993,
      "ĠìĿ´ìĥģ": 994,
      "ëıħ": 995,
      "ë§Ĳ": 996,
      "Ġì¢ħ": 997,
      "ãĢ": 998,
      "ì¡Į": 999,
      "ìħĺ": 1000,
      "íĻľ": 1001,
      "íļį": 1002,
      "Ġê´Ģëł¨": 1003,
      "Ġíĳľ": 1004,
      "ĠìĿ´ìļ©": 1005,
      "ĠìĿ´ëĤĺ": 1006,
      "Ġë§ĲíĸĪëĭ¤": 1007,
      "Ġì´Ŀ": 1008,
      "ĠíķĺëĤĺ": 1009,
      "ê±¸": 1010,
      "ì¤Ħ": 1011,
      "ìº": 1012,
      "ĠëĺĲëĬĶ": 1013,
      "íĨµëł¹": 1014,
      "Ġìłľê³µ": 1015,
      "Ġë§ŀ": 1016,
      "Ġëĵ¤ìĸ´": 1017,
      "Ġíı¬íķ¨": 1018,
      "íķĺë©°": 1019,
      "Ġìķŀ": 1020,
      "...": 1021,
      "ì´Ī": 1022,
      "ìľ¨": 1023,
      "Ġìĭ¬": 1024,
      "ëŀĳ": 1025,
      "Ġë¦": 1026,
      "ëĲĺìĸ´": 1027,
      "ĠíĻĺ": 1028,
      "ĠìŀĪìĸ´": 1029,
      "ëĦĪ": 1030,
      "ë¹ĦìĬ¤": 1031,
      "ìĿ´ë¦Ħ": 1032,
      "íħĮ": 1033,
      "ëłĩ": 1034,
      "Ġì§ĢìĹŃ": 1035,
      "ëĦ¤": 1036,
      "ìł¸": 1037,
      "Ġìŀĺ": 1038,
      "Ġë°ķ": 1039,
      "ì¸µ": 1040,
      "Ġíļ": 1041,
      "ĠìŀĦ": 1042,
      "ë¦¼": 1043,
      "íķĺë©´": 1044,
      "ì¼Ģ": 1045,
      "Ġì²´": 1046,
      "Ġìķ½": 1047,
      "íĶĮ": 1048,
      "Ġë¯¸êµŃ": 1049,
      "Ġìĸ´ëĸ": 1050,
      "Ġì¹ĺ": 1051,
      "ë³ĳ": 1052,
      "ĠíĥĢ": 1053,
      "Ġë°ĿíĺĶëĭ¤": 1054,
      "ĠíĶĦë¡ľ": 1055,
      "íİĺ": 1056,
      "Ġíģ¬": 1057,
      "ë³Ģ": 1058,
      "ĠìĨį": 1059,
      "ë©Ķ": 1060,
      "ì³": 1061,
      "ĠìŀĲìĭł": 1062,
      "íĪ¬": 1063,
      "ë´": 1064,
      "Ġë¯¼": 1065,
      "ëĭ¤ê³ł": 1066,
      "ĠëĮĢíĨµëł¹": 1067,
      "Ġê·ľ": 1068,
      "Ġìĭľìŀĳ": 1069,
      "ĠëĶĶ": 1070,
      "ë¹": 1071,
      "Ġë¦¬": 1072,
      "Ġì§ĢìĽĲ": 1073,
      "ìŁ": 1074,
      "ê·¹": 1075,
      "íķ´ìķ¼": 1076,
      "15": 1077,
      "ìĵ": 1078,
      "ëģ": 1079,
      "ìŁģ": 1080,
      "ê±°ëĤĺ": 1081,
      "ëłĪìĿ´": 1082,
      "ëĲĲëĭ¤": 1083,
      "Ġê°Ģìŀ¥": 1084,
      "Ġë³µ": 1085,
      "Ġíŀ": 1086,
      "ĠëĴ": 1087,
      "ĠëĮĢíĳľ": 1088,
      "ë¡Ģ": 1089,
      "ĠìĦľìļ¸": 1090,
      "ê²¬": 1091,
      "ìĿĳ": 1092,
      "Ġì§Ħíĸī": 1093,
      "ìĬ¤íĬ¸": 1094,
      "ĠìĹħ": 1095,
      "Ġìĭ¤ìĭľ": 1096,
      "Ġê´ĳ": 1097,
      "ëĨ": 1098,
      "Ġëĵľ": 1099,
      "ìľĦìĽĲ": 1100,
      "ëĿ¼ëĬĶ": 1101,
      "Ġê´Ģê³Ħ": 1102,
      "Ġíĺ¸": 1103,
      "Ġì·¨": 1104,
      "Ġë©Ķ": 1105,
      "Ġì¹´": 1106,
      "ìĿ´ê³ł": 1107,
      "Ġìłķë¶Ģ": 1108,
      "Ġë§Įëĵ¤": 1109,
      "íıī": 1110,
      "ê°Ŀ": 1111,
      "Ġìłĳ": 1112,
      "Ġíĺĳ": 1113,
      "ĠìĤ¬ìĹħ": 1114,
      "Ġì¶©": 1115,
      "ê²ĥ": 1116,
      "Ġìłķë³´": 1117,
      "ìłĳ": 1118,
      "íĬ¹": 1119,
      "ëī´ìĬ¤": 1120,
      "Ġëĭ¤ìĸĳ": 1121,
      "Ġíķĺê³ł": 1122,
      "ìī": 1123,
      "íĺĳ": 1124,
      "ĠìķĦìĿ´": 1125,
      "ĠëıĮ": 1126,
      "Ġìĭľê°Ħ": 1127,
      "ëĿ": 1128,
      "ĠìĦ¤ëªħ": 1129,
      "Ġë§İìĿĢ": 1130,
      "ëŀľ": 1131,
      "Ġëĸ": 1132,
      "Ġì±Ħ": 1133,
      "Ġíİ¸": 1134,
      "ì¸ł": 1135,
      "ĠìĤ¬íļĮ": 1136,
      "ì¶Ķ": 1137,
      "ĠìĨĲ": 1138,
      "ĠíĴ": 1139,
      "į¼": 1140,
      "ìĥī": 1141,
      "100": 1142,
      "Ġë¶ģ": 1143,
      "ê·ľ": 1144,
      "ëĲĺê³ł": 1145,
      "ĠìĦ¸ê³Ħ": 1146,
      "áĦ": 1147,
      "Ġìĺ¨": 1148,
      "ê·¸ëŁ¬": 1149,
      "Ġê¸°ìĹħ": 1150,
      "Ġì°¾": 1151,
      "Ġê±¸": 1152,
      "ìķħ": 1153,
      "ìĹ´": 1154,
      "ìĿ´ëĿ¼ê³ł": 1155,
      "ĠìĥģíĻ©": 1156,
      "ë¶ĢíĦ°": 1157,
      "ìĿ´íĦ°": 1158,
      "ëĭĺ": 1159,
      "ĠëĴ¤": 1160,
      "Ġê¸°ìĪł": 1161,
      "ëĿ½": 1162,
      "ĠìĿĮ": 1163,
      "ìĻĢ": 1164,
      "ìķ¡": 1165,
      "Ġì¤Ħ": 1166,
      "ĠìĻĦ": 1167,
      "ĠìĤ¬ìĿ´": 1168,
      "ĠëĤĺíĥĢ": 1169,
      "ì§Ģê³ł": 1170,
      "Ġíļ¨": 1171,
      "202": 1172,
      "Ġìļ©": 1173,
      "Ġë°ľìĥĿ": 1174,
      "Ġìĸ¸": 1175,
      "ëĵĿ": 1176,
      "ĠìķĬëĬĶ": 1177,
      "ê¸¸": 1178,
      "ë°Ľ": 1179,
      "ĠìĦľë¹ĦìĬ¤": 1180,
      "ì°©": 1181,
      "Ġëıħ": 1182,
      "Ġë²Ī": 1183,
      "ĠìĭĿ": 1184,
      "Ġêµ¬ìĦ±": 1185,
      "ê¹Ģ": 1186,
      "íķ©ëĭĪëĭ¤": 1187,
      "Ġê²°ê³¼": 1188,
      "ìį": 1189,
      "Ģë¡ľ": 1190,
      "Ġê¸°ìŀĲ": 1191,
      "ĠëĲľëĭ¤": 1192,
      "Ġíģ°": 1193,
      "Ġë°ľëªħ": 1194,
      "Ġê°ĸ": 1195,
      "14": 1196,
      "ĠĠ": 1197,
      "ĠìĪľ": 1198,
      "ĠìĿ´íĽĦ": 1199,
      "ë¶Ī": 1200,
      "50": 1201,
      "Ġëĭ¤ìĸĳíķľ": 1202,
      "ìĺ¬": 1203,
      "ĠìĹ°êµ¬": 1204,
      "ĠíĬ¸": 1205,
      "íķ´ìĦľ": 1206,
      "ë°±": 1207,
      "Ġëª¨ëĳĲ": 1208,
      "âĸ": 1209,
      "Ġì¤Ģ": 1210,
      "ĠìĺģíĻĶ": 1211,
      "ë¡ľìļ´": 1212,
      "ĠìłĪ": 1213,
      "Ġë°©ë²ķ": 1214,
      "ĠìĤ¬ëŀĮëĵ¤": 1215,
      "ìĿ´ëĿ¼ëĬĶ": 1216,
      "Ġì¸¡": 1217,
      "ìķł": 1218,
      "Ġëĭ´": 1219,
      "Ġì°½": 1220,
      "Ġëł": 1221,
      "ĠìĿ´ìĸ´": 1222,
      "ë§ī": 1223,
      "ĠìłķëıĦ": 1224,
      "Ġ:": 1225,
      "íķĺì§Ģë§Į": 1226,
      "Ġì¤ĳêµŃ": 1227,
      "ĠëĪĦ": 1228,
      "Ġìº": 1229,
      "Ġìĵ": 1230,
      "ë¨¸": 1231,
      "18": 1232,
      "Ġìĭľìŀ¥": 1233,
      "ĠìĹĨëĬĶ": 1234,
      "Ġë¿": 1235,
      "ì¡Įëĭ¤": 1236,
      "ĠëĲł": 1237,
      "13": 1238,
      "ìĿµ": 1239,
      "ĠìĹĨëĭ¤": 1240,
      "íħľ": 1241,
      "Ġì±ħ": 1242,
      "ĠíĸĪ": 1243,
      "ëĪ": 1244,
      "Ġëħ¼": 1245,
      "ìŀĪ": 1246,
      "ë¥ł": 1247,
      "ì§¸": 1248,
      "ĠëĬĲ": 1249,
      "ĠìĤ¬ìĭ¤": 1250,
      "ĠëĦĺ": 1251,
      "ë²Ķ": 1252,
      "íķĺë©´ìĦľ": 1253,
      "Ġê·¼": 1254,
      "ìª": 1255,
      "ĠìķĦëĭĪëĿ¼": 1256,
      "Ġëª¨ëĵł": 1257,
      "ì³Ĳ": 1258,
      "ìĭľê°Ħ": 1259,
      "Ġíħ": 1260,
      "ê²Ģ": 1261,
      "ìĦ¼": 1262,
      "16": 1263,
      "Ġì§Ī": 1264,
      "ĠêµĲìľ¡": 1265,
      "Ġì²ĺëŁ¼": 1266,
      "Ġê²½ìłľ": 1267,
      "Ġì»¤": 1268,
      "Ġíĸ¥": 1269,
      "ì°½": 1270,
      "ëĬĲ": 1271,
      "ĠíĶĮ": 1272,
      "ĠíĮ¨": 1273,
      "ìĿ´ìĬ¤": 1274,
      "Ġë¨¹": 1275,
      "Ġìļ´ìĺģ": 1276,
      "Ġê°ľë°ľ": 1277,
      "ê¼": 1278,
      "ëł¸": 1279,
      "ëŁ½": 1280,
      "ĠêµŃê°Ģ": 1281,
      "ìª½": 1282,
      "Ġì¤ĳìļĶ": 1283,
      "ìĩ": 1284,
      "ê²¨": 1285,
      "Ġê²½ê¸°": 1286,
      "Ġìĭ¶": 1287,
      "ëĬĺ": 1288,
      "Ġê¶Į": 1289,
      "ì¹¨": 1290,
      "ìĿ´íĬ¸": 1291,
      "ê²łëĭ¤": 1292,
      "ĠìĿĺìĽĲ": 1293,
      "ìį¨": 1294,
      "ĠíķŃ": 1295,
      "ĠêµŃë¯¼": 1296,
      "ëłĩê²Į": 1297,
      "ëħĢ": 1298,
      "Ġíŀĺ": 1299,
      "ĠìŀĪìĿĦ": 1300,
      "Ġë¸Į": 1301,
      "ë²Į": 1302,
      "ĠëĤł": 1303,
      "ëĺĲíķľ": 1304,
      "ĠìĤ¼": 1305,
      "ĠëĶ°ë¥¸": 1306,
      "ĠìĬ¹": 1307,
      "ê¸°ìĹħ": 1308,
      "íĮħ": 1309,
      "ì½ĺ": 1310,
      "Ġê³Ħíļį": 1311,
      "ĠíĨł": 1312,
      "ë¦¬ëĬĶ": 1313,
      "ìĭľìķĦ": 1314,
      "¨ìĸ´": 1315,
      "ĠìĿ´ë²Ī": 1316,
      "ìĸµìĽĲ": 1317,
      "Ġíĥľ": 1318,
      "ë¥´ë©´": 1319,
      "ĠëĤ´ìļ©": 1320,
      "ë§ĮìĽĲ": 1321,
      "Ġì¹ľ": 1322,
      "íķĻêµĲ": 1323,
      "ì¿": 1324,
      "ĠëĮĢìĥģ": 1325,
      "ĠíĻķìĿ¸": 1326,
      "ĠëłĪ": 1327,
      "Ġë´": 1328,
      "Ġì¦": 1329,
      "ìľµ": 1330,
      "ì§ĢëĬĶ": 1331,
      "ĠëĬĺ": 1332,
      "ìĬ¤íħľ": 1333,
      "ëŀ¨": 1334,
      "Ġë²Ħ": 1335,
      "ìĹ¼": 1336,
      "ĠëĪĪ": 1337,
      "ĠìĿ´ëĿ¼ê³ł": 1338,
      "ëŁ¬íķľ": 1339,
      "ë¸Ķ": 1340,
      "ìĿ´ìĹĪëĭ¤": 1341,
      "Ġê³³": 1342,
      "ĠìĿ¼ë³¸": 1343,
      "ì²ł": 1344,
      "íĥĦ": 1345,
      "ì§ķ": 1346,
      "íĿ¬": 1347,
      "ìĤ¬ìĹħ": 1348,
      "ìĿ´ì§Ģ": 1349,
      "Ġêµ°": 1350,
      "ìĿ´ìĸ´": 1351,
      "ê¸Ģ": 1352,
      "Ġë¿Ĳ": 1353,
      "Ġì£": 1354,
      "ĠíĺķìĦ±": 1355,
      "ĠìĺĪìłķ": 1356,
      "Ġëĭ¤ìĭľ": 1357,
      "Ġìķł": 1358,
      "Ġê²°ìłķ": 1359,
      "Ġë§İìĿ´": 1360,
      "ĠêµŃëĤ´": 1361,
      "17": 1362,
      "ĠíĺĦìŀ¬": 1363,
      "ìĭľíĤ¤": 1364,
      "ľ´": 1365,
      "ĠìĽ": 1366,
      "ĠìłĦë¬¸": 1367,
      "ëĦĲ": 1368,
      "ĠìĪ": 1369,
      "ĠëĨį": 1370,
      "ë¦´": 1371,
      "ĠìŀĪëıĦë¡Ŀ": 1372,
      "ìľ¼ë©´": 1373,
      "Ġëĭ¤ìĿĮ": 1374,
      "Ġë³¼": 1375,
      "ê¾": 1376,
      "íį¼": 1377,
      "íĮ¨": 1378,
      "Ġê°ľìĿ¸": 1379,
      "Ġ[": 1380,
      "ëŀµ": 1381,
      "ĠëĶ°ë¥´ë©´": 1382,
      "ëı¼": 1383,
      "40": 1384,
      "ĠìĿ´ìľł": 1385,
      "ĠëĦĪ": 1386,
      "Ġìĥģíĥľ": 1387,
      "ìĬ¬": 1388,
      "Ġë¶Ģë¶Ħ": 1389,
      "ë¦¬ìķĦ": 1390,
      "Ġì¡´": 1391,
      "Ġëª¨ìĬµ": 1392,
      "ĠìĹĶ": 1393,
      "Ġìī": 1394,
      "Ġê°ĻìĿ´": 1395,
      "Ġê³¼ìłķ": 1396,
      "ê·¸ëŀ¨": 1397,
      "ĠìŀĪìĹĪ": 1398,
      "ëĤ¬": 1399,
      "ëķĮ": 1400,
      "íĻķ": 1401,
      "ĠëıĦìĭľ": 1402,
      "ë¡¯": 1403,
      "Ġë³´ê³ł": 1404,
      "25": 1405,
      "Ġë©´": 1406,
      "ë²ł": 1407,
      "ĠìķĦëĭ": 1408,
      "ìķ¼ê¸°": 1409,
      "ëĥĲ": 1410,
      "ì¹ľ": 1411,
      "ĠìŀĪìĹĪëĭ¤": 1412,
      "Ġëį°ìĿ´íĦ°": 1413,
      "ĠíĹĪ": 1414,
      "ĠíıŃ": 1415,
      "ĠëĦ¤": 1416,
      "ìĤ¬íļĮ": 1417,
      "Ġê´Ģë¦¬": 1418,
      "ìĭľìŀ¥": 1419,
      "Ġê¸¸": 1420,
      "Ġê¸°ë¡Ŀ": 1421,
      "Ġë²ł": 1422,
      "ì£¼ìĿĺ": 1423,
      "ìļ±": 1424,
      "ìłķë³´": 1425,
      "ĠìĹ¬ëŁ¬": 1426,
      "ĠìŀĪê³ł": 1427,
      "ĠíĽĦë³´": 1428,
      "Ġìķ¼": 1429,
      "ê·ł": 1430,
      "ĠìĥĪë¡ľìļ´": 1431,
      "Ġì¦Ŀê°Ģ": 1432,
      "ìĤ´": 1433,
      "ĠíĪ¬ìŀĲ": 1434,
      "ë¡ľëĤĺ": 1435,
      "íģ¼": 1436,
      "ìľĦìĽĲíļĮ": 1437,
      "Ġë²Ķ": 1438,
      "ê·¸ëŁ¬ëĤĺ": 1439,
      "Ġê¸°ì¤Ģ": 1440,
      "ĠëģĿ": 1441,
      "Ġì§Ģê¸Ī": 1442,
      "ìĿ´ë©°": 1443,
      "ìĹĨ": 1444,
      "ĠìłľíĴĪ": 1445,
      "ìķĻ": 1446,
      "ëħĲ": 1447,
      "ì»¤": 1448,
      "ĽĪ": 1449,
      "Ġë¹ł": 1450,
      "ĠìĿ´ìķ¼ê¸°": 1451,
      "Ġë§ĪìĿĮ": 1452,
      "Ġì°¸ìĹ¬": 1453,
      "Ġìĵ°": 1454,
      "ĠìĿ´ë¯¸": 1455,
      "Ġë°±": 1456,
      "ë§ģ": 1457,
      "Ġì¡°ìĤ¬": 1458,
      "ĠìľĦì¹ĺ": 1459,
      "íĹĪ": 1460,
      "ĠìĦłíĥĿ": 1461,
      "ê°Ī": 1462,
      "ĠìŀĪëĭ¤ëĬĶ": 1463,
      "ì´Ŀ": 1464,
      "Ġíģ´": 1465,
      "ĠìķĬê³ł": 1466,
      "ëŀľëĵľ": 1467,
      "ĠìŀĪìľ¼ë©°": 1468,
      "22": 1469,
      "Ġê·¸ë¦¬ê³ł": 1470,
      "êµĲìľ¡": 1471,
      "íķľêµŃ": 1472,
      "!Ċ": 1473,
      "ĠìĿĺë¯¸": 1474,
      "Ġìĸ¼": 1475,
      "Ġâĸ": 1476,
      "Ġë¶ĦìĦĿ": 1477,
      "Ġë§ī": 1478,
      "Ġë¸Ķ": 1479,
      "Ġìĸ´ëĸ¤": 1480,
      "Ġíıīê°Ģ": 1481,
      "Ġì¶ķ": 1482,
      "Ġì²«": 1483,
      "ìĸ´ìļĶ": 1484,
      "ê³³": 1485,
      "Ġì¶Ķì§Ħ": 1486,
      "ì¼ľ": 1487,
      "ĠìĿ´ëŁ°": 1488,
      "ĠëıĻìķĪ": 1489,
      "Ġë³ĳ": 1490,
      "ĠìĿ´ëĤł": 1491,
      "ĠíħĮ": 1492,
      "ĠíĻľëıĻ": 1493,
      "Ġíļ¨ê³¼": 1494,
      "ë´ī": 1495,
      "ëĮĢë¡ľ": 1496,
      "ĠíĻľìļ©": 1497,
      "ĠìĿĺíķ´": 1498,
      "24": 1499,
      "Ġì§ĢëĤľíķ´": 1500,
      "Ġë²Į": 1501,
      "Ġë¡ľë¶ĢíĦ°": 1502,
      "áĦı": 1503,
      "Ġìµľê·¼": 1504,
      "Ġë¬¸íĻĶ": 1505,
      "ĠëĿ¼ê³ł": 1506,
      "ëĭµ": 1507,
      "Ġì¶Ķê°Ģ": 1508,
      "ìłķë¶Ģ": 1509,
      "ëĿ¼ìĿ¸": 1510,
      "Ġìĺģíĸ¥": 1511,
      "Ġì¢ĭìĿĢ": 1512,
      "Ġì£¼ìŀ¥": 1513,
      "ĠìĦ¤ì¹ĺ": 1514,
      "íķĺìĺĢëĭ¤": 1515,
      "ëĳ": 1516,
      "Ġíķ´ëĭ¹": 1517,
      "ĠìķĮëł¤": 1518,
      "Ġëĳ": 1519,
      "ìĦľìļ¸": 1520,
      "ìĿ´ê¸°": 1521,
      "ĠìķĬìĿĢ": 1522,
      "ĠìĿ¼ë¶Ģ": 1523,
      "Ġë¨¸": 1524,
      "ê¸´": 1525,
      "Ġê·¸ëŁ°": 1526,
      "íĸĪëįĺ": 1527,
      "ê¿": 1528,
      "ĠìĭľìĬ¤íħľ": 1529,
      "ĠíĤ": 1530,
      "Ġìĺ¬íķ´": 1531,
      "Ġê¸°ëĮĢ": 1532,
      "ë°Ģ": 1533,
      "Ġìłķì¹ĺ": 1534,
      "ìľ¼ëĤĺ": 1535,
      "Ġëī´ìĬ¤": 1536,
      "Ġë°ľíĳľ": 1537,
      "Ġì§ģìłĳ": 1538,
      "Ġìµľê³ł": 1539,
      "Ġì²ł": 1540,
      "ìĿ´ëĬĶ": 1541,
      "Ġìŀ¡": 1542,
      "Ġë¶ģíķľ": 1543,
      "ĠìĹ°ê²°": 1544,
      "ê¾¸": 1545,
      "ìĦ¼íĦ°": 1546,
      "Ġê¼": 1547,
      "íĺģ": 1548,
      "ĠíĥĦ": 1549,
      "Ġìłģìļ©": 1550,
      "Ġìĸ´ëł¤": 1551,
      "ĠìĿ¸íĦ°": 1552,
      "Ġë³ĢíĻĶ": 1553,
      "ê¸°ê´Ģ": 1554,
      "]Ċ": 1555,
      "Ġë§Įëĵ¤ìĸ´": 1556,
      "21": 1557,
      "íĮĢ": 1558,
      "ĩ´": 1559,
      "Ġê¸Ģ": 1560,
      "ìķķ": 1561,
      "ëĿ¼ìĿ´": 1562,
      "ĠíĻĺê²½": 1563,
      "ĠíĶ¼íķ´": 1564,
      "Ġìłķì±ħ": 1565,
      "ĠìĤ¬ê±´": 1566,
      "ĠíĦ": 1567,
      "ë§ĪíĬ¸": 1568,
      "Ġë¡ľìĦľ": 1569,
      "Ġê°Ī": 1570,
      "ĠìķĪìłĦ": 1571,
      "Ġê¸ī": 1572,
      "Ġê´Ģê³ĦìŀĲ": 1573,
      "ëĲĺì§Ģ": 1574,
      "êµ´": 1575,
      "Ġìľłì§Ģ": 1576,
      "íı°": 1577,
      "ìļ´ëį°": 1578,
      "ìĿ´ìĹĪ": 1579,
      "ĠíĻį": 1580,
      "Ġëľ": 1581,
      "ìļ°ë¦¬": 1582,
      "íĨ": 1583,
      "ĠìĦ±ìŀ¥": 1584,
      "Ġì¤ĳìĭ¬": 1585,
      "Ġìĸ»": 1586,
      "ĠìĿ´ëĵ¤": 1587,
      "íĬ¹íŀĪ": 1588,
      "íıŃ": 1589,
      "ê°Ģì§Ģ": 1590,
      "Ġê°ĢëĬ¥ìĦ±": 1591,
      "ĠìĹĨìĿ´": 1592,
      "íĸĪìĬµëĭĪëĭ¤": 1593,
      "Ġëħ¸ëł¥": 1594,
      "Ġë§Īëł¨": 1595,
      "Ġë³´ìĹ¬": 1596,
      "23": 1597,
      "ĠìµľëĮĢ": 1598,
      "Ġê·¹": 1599,
      "Ġë°ĸ": 1600,
      "ëĭĪê¹Į": 1601,
      "Ġë³Ħ": 1602,
      "ĠìĹ¬ìĦ±": 1603,
      "ĠìĤ°ìĹħ": 1604,
      "ìĸ´ëĤĺ": 1605,
      "ëĿ¼ëıĦ": 1606,
      "ĠëĲĺëĬĶ": 1607,
      "Ġê¸°ëĬ¥": 1608,
      "ĠìļĶêµ¬": 1609,
      "Ġíİĺ": 1610,
      "ĠìĿ´ë£¨": 1611,
      "Ġì²ĺìĿĮ": 1612,
      "Ġê³łê°Ŀ": 1613,
      "ĠìĹĦ": 1614,
      "Ġíķµ": 1615,
      "ì°¬": 1616,
      "íģ´": 1617,
      "ĠíļĮìĤ¬": 1618,
      "Ġì²ľ": 1619,
      "Ġë°©ìĭĿ": 1620,
      "ĠíĶĦë¡ľê·¸ëŀ¨": 1621,
      "Ġê³ĦìĨį": 1622,
      "ĠíĻķëĮĢ": 1623,
      "ĠëĦĪë¬´": 1624,
      "ì§ĢëĤľ": 1625,
      "ĠìłĦì²´": 1626,
      "Ġê´Ģíķľ": 1627,
      "ìĹ°êµ¬": 1628,
      "ĠëĤ®": 1629,
      "íĥĪ": 1630,
      "ìĿ¸ëĵ¤": 1631,
      "Ġê°ķíĻĶ": 1632,
      "ĠëĨĴìĿĢ": 1633,
      "Ġê°ģê°ģ": 1634,
      "»ê²Į": 1635,
      "ĠíĮĲë§¤": 1636,
      "ìłĦìŀĲ": 1637,
      "Ġë°ĽìķĦ": 1638,
      "ĠíķĻìĥĿ": 1639,
      "Ġíķ©ëĭĪëĭ¤": 1640,
      "ëıĮ": 1641,
      "ëĪĦ": 1642,
      "Ġê³µê°ľ": 1643,
      "ë¬¸íĻĶ": 1644,
      "ë¦Ń": 1645,
      "Ġêµ¬ì¡°": 1646,
      "íļ¨": 1647,
      "íĺ¼": 1648,
      "ìļķ": 1649,
      "Ġë§Įíģ¼": 1650,
      "Ġì¤Ģë¹Ħ": 1651,
      "Ġê°Ģìļ´ëį°": 1652,
      "ìĿ´ë²Ī": 1653,
      "Ġê´Ģìĭ¬": 1654,
      "ĠìĿ´ëıĻ": 1655,
      "íĦ´": 1656,
      "ĠìĿ´íķ´": 1657,
      "Ġëŀ": 1658,
      "Ġê°Ģì§Ģ": 1659,
      "Ġë¶Ħìķ¼": 1660,
      "íħĲ": 1661,
      "ìŀĲìĿ¸": 1662,
      "ĠêµŃíļĮ": 1663,
      "Ġíĺ¼": 1664,
      "ì§ĢìĹŃ": 1665,
      "ĠìŀĪëĭ¤ê³ł": 1666,
      "ĠìĥĿìĤ°": 1667,
      "Ġë°Ķë¡ľ": 1668,
      "ĠìĪĺì¤Ģ": 1669,
      "ê²½ìłľ": 1670,
      "ë£¹": 1671,
      "ì¿ł": 1672,
      "ĠìĤ¬ì§Ħ": 1673,
      "ķĦ": 1674,
      "60": 1675,
      "ĠëĮĢíķ´ìĦľ": 1676,
      "ĠêµŃìłľ": 1677,
      "ëĬĶëĭ¤": 1678,
      "Ġíķ´ê²°": 1679,
      "ê´Ģë¦¬": 1680,
      "ĠìŀĲë¦¬": 1681,
      "íĨµìĭł": 1682,
      "Ġì§ĢìĨį": 1683,
      "Ġëĸł": 1684,
      "ê³¡": 1685,
      "ìĬĪ": 1686,
      "ë¦¬ìĬ¤": 1687,
      "ëĤ¸": 1688,
      "íķĦ": 1689,
      "Ġì½ĺ": 1690,
      "Ġë§Ľ": 1691,
      "ĠìĿ¼ë°ĺ": 1692,
      "ê°ĢëĬĶ": 1693,
      "ì¶©": 1694,
      "Ġìķķ": 1695,
      "ĠíĤ¤": 1696,
      "Ġê°ķì¡°": 1697,
      "ìĻĶëĭ¤": 1698,
      "Ġìŀ¥ì¹ĺ": 1699,
      "Ġëĭ¹ìĭľ": 1700,
      "ìĿ¸ëĭ¤": 1701,
      "Ġì°¾ìķĦ": 1702,
      "ĠëįĶìļ±": 1703,
      "Ġê²ĮìŀĦ": 1704,
      "ì£ł": 1705,
      "ĠìĿĳ": 1706,
      "âĶĤ": 1707,
      "ê·¸ë¦¬ê³ł": 1708,
      "Ġìŀł": 1709,
      "Ġë°ľìłĦ": 1710,
      "Ġê³µê¸ī": 1711,
      "ĠëķĮë¬¸ìĿ´ëĭ¤": 1712,
      "ëł¸ëĭ¤": 1713,
      "ĠìķĦëĭĮ": 1714,
      "Ġìľ¼ë¡ľìį¨": 1715,
      "Ġìĸ´ëĸ»ê²Į": 1716,
      "ê½": 1717,
      "Ġì²ĺë¦¬": 1718,
      "ìĤ°ìĹħ": 1719,
      "ìĥĪ": 1720,
      "ë¨¼": 1721,
      "--": 1722,
      "ì£Ħ": 1723,
      "ĠìĤ¬ëŀĳ": 1724,
      "Ġìŀħìŀ¥": 1725,
      "ë¶Ģë¶Ħ": 1726,
      "ĠìĹŃíķł": 1727,
      "Ġì½Ķë¡ľëĤĺ": 1728,
      "ëĶ°": 1729,
      "ĠìºĲ": 1730,
      "ëĦ·": 1731,
      "Ġëĭ¨ê³Ħ": 1732,
      "ĠìĦ±ê³µ": 1733,
      "ìĭľíĤ": 1734,
      "Ġë°©ë¬¸": 1735,
      "Ġê³¨": 1736,
      "27": 1737,
      "ëĦĪì§Ģ": 1738,
      "ì§Ħëĭ¤": 1739,
      "Ġì§Ģì§Ģ": 1740,
      "ķĳ": 1741,
      "Ġìĺ¤íĽĦ": 1742,
      "íķĳ": 1743,
      "ĠêµĲìĪĺ": 1744,
      "Ġëª°": 1745,
      "ê¶ĮìŀĲ": 1746,
      "Ġìĭ¤ìĭľìĺĪ": 1747,
      "Ġë°Ģ": 1748,
      "Ġê°Ĳëıħ": 1749,
      "ê°Ļ": 1750,
      "íĸĪê³ł": 1751,
      "28": 1752,
      "ĠìĽĶ": 1753,
      "ĠìĨĮë¹Ħ": 1754,
      "Ġì¡´ìŀ¬": 1755,
      "Ġê°ľìĦł": 1756,
      "ĠìĥģëĮĢ": 1757,
      "íĸĪëĭ¤ê³ł": 1758,
      "ĠíķĦìļĶíķľ": 1759,
      "íķĺëıĦë¡Ŀ": 1760,
      "Ġ%": 1761,
      "ĠëĤĺìĺ¤": 1762,
      "ĠëŁ": 1763,
      "Ġëª¸": 1764,
      "ì¹Ļ": 1765,
      "ĠëĮĢíķĻ": 1766,
      "ê¸°ìĪł": 1767,
      "ìŀ¡": 1768,
      "ë¯Ģë¡ľ": 1769,
      "íķĺëł¤": 1770,
      "ĠìľĦíķ´ìĦľ": 1771,
      "ĠìĦłìĪĺ": 1772,
      "ë·": 1773,
      "Ġê²½íĹĺ": 1774,
      "©ëĭĪëĭ¤": 1775,
      "ĠìĹŃìĭľ": 1776,
      "Ġë°©íĸ¥": 1777,
      "Ġìī½": 1778,
      "ë³¼": 1779,
      "Ġë°ĶëŀĮ": 1780,
      "ĠìķĬìķĺëĭ¤": 1781,
      "Ġê±´ê°ķ": 1782,
      "Ġë©°": 1783,
      "ĠëĤľ": 1784,
      "ëį¸": 1785,
      "ëĤ¬ëĭ¤": 1786,
      "íĥģ": 1787,
      "ìĿ¸ì§Ģ": 1788,
      "ìĹĩ": 1789,
      "Ġíľ´": 1790,
      "26": 1791,
      "ĠìĤ¶": 1792,
      "Ġíĭ": 1793,
      "ĠëıĮìķĦ": 1794,
      "Ġì§Ģìłģ": 1795,
      "Ġê¸Īìľµ": 1796,
      "Ġì¹¨": 1797,
      "ĠìĨ¡": 1798,
      "íħĶ": 1799,
      "Ġê°Ģê²©": 1800,
      "ĠìŀĲëıĻ": 1801,
      "ìĤ¼": 1802,
      "Ġìłľì¡°": 1803,
      "ëģ¼": 1804,
      "ìĦ¸ìļĶ": 1805,
      "Ġê·¸ëŁ¬": 1806,
      "Ġë£": 1807,
      "íĽĪ": 1808,
      "Ġì¦Ĳ": 1809,
      "ëĤĺëĿ¼": 1810,
      "ì£¼ëĭ¹": 1811,
      "íķľíİ¸": 1812,
      "Ġì£½": 1813,
      "ĠíıĲ": 1814,
      "Ġìħ": 1815,
      "íķĺê±°ëĤĺ": 1816,
      "íĺľ": 1817,
      "Ġëĥ": 1818,
      "ĠíĮĲëĭ¨": 1819,
      "Ġ/": 1820,
      "Ġê·ľëª¨": 1821,
      "ĠìŀĪìĸ´ìĦľ": 1822,
      "ë¯¼ëĵ¤": 1823,
      "ì¼ĢìĿ´": 1824,
      "Ġê³µëıĻ": 1825,
      "Ġê·Ģ": 1826,
      "ĠëıĪ": 1827,
      "ëłĮ": 1828,
      "ĠëĮĢìĿĳ": 1829,
      "ĠìŀĲìľł": 1830,
      "Ġë°©ìĨ¡": 1831,
      "ì£¼ëĬĶ": 1832,
      "ëĮĢíĳľ": 1833,
      "Ġê²½ìŁģ": 1834,
      "ĠíĬ¹ë³Ħ": 1835,
      "âĶĢâĶĢâĶĢâĶĢ": 1836,
      "íĺĢ": 1837,
      "ĠìłĦë§Ŀ": 1838,
      "ìĭŃ": 1839,
      "ìĽĲëĵ¤": 1840,
      "ìĬ¤íģ¬": 1841,
      "ĠìĹŃìĤ¬": 1842,
      "ë²¤": 1843,
      "ìĨĶ": 1844,
      "ĠìĥĿíĻľ": 1845,
      "ëĬ¥ëł¥": 1846,
      "ê³¨": 1847,
      "ĠìĪĺíĸī": 1848,
      "Ġì¡°ìĦ±": 1849,
      "ĠíĸīìĤ¬": 1850,
      "Ġìłľëª©": 1851,
      "Ġì£¼ìļĶ": 1852,
      "ìĿ¸ëį°": 1853,
      "ĠëıĦìĽĢ": 1854,
      "Ġë³´íĺ¸": 1855,
      "ĠëĺĲíķľ": 1856,
      "ì¹Ń": 1857,
      "ĠíĦ°": 1858,
      "Ġë§¤ìļ°": 1859,
      "ìĭľìĦ¤": 1860,
      "Ġê¸°ê°Ħ": 1861,
      "ĠìĿ¸ìłķ": 1862,
      "ĠìĺĪìłķìĿ´ëĭ¤": 1863,
      "ĠíĻĪ": 1864,
      "ìĿ´ëĵľ": 1865,
      "Ġíĺķíĥľ": 1866,
      "Ġê°Ģì¡±": 1867,
      "Ġë¯¸ëŀĺ": 1868,
      "Ġë³´ë©´": 1869,
      "Ġê¸°ì¡´": 1870,
      "Ġê²½ì°°": 1871,
      "Ġìĸ´ëĬĲ": 1872,
      "ĠìĺĪìĥģ": 1873,
      "ì¦Į": 1874,
      "29": 1875,
      "Ġíķĺì§Ģë§Į": 1876,
      "ĠëĨĵ": 1877,
      "ĠìľĦìĽĲ": 1878,
      "ĠìłĦêµŃ": 1879,
      "Ġìĭľíĸī": 1880,
      "ĠìĹħë¬´": 1881,
      "ìĿĢíĸī": 1882,
      "ëŀĺìĦľ": 1883,
      "ĠìĤ¬ìļ©ìŀĲ": 1884,
      "ë²½": 1885,
      "ëĲĺìĹĪëĭ¤": 1886,
      "ìĬ¤íĦ°": 1887,
      "ì§ĢìĽĲ": 1888,
      "ĠìĹ´ë¦°": 1889,
      "ĠìĿ¸ê°Ħ": 1890,
      "ëĨį": 1891,
      "Ġìķħ": 1892,
      "ĠíķĻêµĲ": 1893,
      "ìĥģê¸°": 1894,
      "ĠìŀĳíĴĪ": 1895,
      "ê¶ģ": 1896,
      "Ġê³µê°Ħ": 1897,
      "íĦ¸": 1898,
      "ìĩ¼": 1899,
      "Ġì¢ĭìķĦ": 1900,
      "Ġì§Ģë°©": 1901,
      "ë¡Ń": 1902,
      "ĠìŀĲì²´": 1903,
      "ĠëĤ´ë¶Ģ": 1904,
      "Ġì±ħìŀĦ": 1905,
      "ëĲĲ": 1906,
      "500": 1907,
      "Ġìĺģìĥģ": 1908,
      "ë¤": 1909,
      "ĠíĿ¬": 1910,
      "Ġëª©ìłģ": 1911,
      "ì°¸": 1912,
      "ĠëĲĺìĸ´": 1913,
      "ĠìĿ´ë¦Ħ": 1914,
      "ĠëĬĲëĤ": 1915,
      "ë¥´ëĬĶ": 1916,
      "ëĨĵ": 1917,
      "Ġê³łëł¤": 1918,
      "ìĮ": 1919,
      "Ġëĸ¨ìĸ´": 1920,
      "Ġë¶ĢìĤ°": 1921,
      "ĠíĮĢ": 1922,
      "ëĶ©": 1923,
      "Ġìłľìĸ´": 1924,
      "ê°ľìĽĶ": 1925,
      "ĠíĬ¹íŀĪ": 1926,
      "Ġìľ¡": 1927,
      "ìłķíķľ": 1928,
      "ĠíĥĪ": 1929,
      "Ġìĺ¤ëĬĶ": 1930,
      "ìŀĳê¶ĮìŀĲ": 1931,
      "ìłĦíŀĪ": 1932,
      "ĠìĤ¼ìĦ±": 1933,
      "ì¡°ìĤ¬": 1934,
      "Ġìĺ¤ëĬĺ": 1935,
      "âĹ": 1936,
      "Ġê°Ģì§Ģê³ł": 1937,
      "íıĲ": 1938,
      "Ġì¹ĺë£Į": 1939,
      "ì§ľ": 1940,
      "Ġ]": 1941,
      "Ġì¢Ģ": 1942,
      "ĠìĶ¨": 1943,
      "íħĲì¸ł": 1944,
      "íĶ½": 1945,
      "ĠëĮĢë¹Ħ": 1946,
      "ìĬ¤íĥĢ": 1947,
      "ìĬ¨": 1948,
      "ëľ": 1949,
      "Ġìłľìŀĳ": 1950,
      "ìķĶ": 1951,
      "Ġê¸´": 1952,
      "ĠâĶĤ": 1953,
      "ĠìĬ¤íĥĢ": 1954,
      "Ġì¤ĳìļĶíķľ": 1955,
      "ëĶĶìĸ´": 1956,
      "Ġìľ¤": 1957,
      "íĺ¹": 1958,
      "ĠíĺĲ": 1959,
      "Ġëĳĺ": 1960,
      "ĠìĥģìĬ¹": 1961,
      "ìĹĶ": 1962,
      "ìŀĲë¦¬": 1963,
      "Ġëħ¸ëıĻ": 1964,
      "ìĪĻ": 1965,
      "ĠìĿ´ëŁ¬íķľ": 1966,
      "ĠĠĠĠ": 1967,
      "ìľ¤": 1968,
      "Ġíģ¬ê²Į": 1969,
      "íĿ¥": 1970,
      "ĠìķĬìķĺ": 1971,
      "Ġì»¨": 1972,
      "ĠíĽ": 1973,
      "Ġë¬´ìĹĩ": 1974,
      "Ġëªĩ": 1975,
      "Ġìłģê·¹": 1976,
      "ĠìĿ´ë£¨ìĸ´": 1977,
      "ĠëĲĲëĭ¤": 1978,
      "ëıĻìķĪ": 1979,
      "ĠìĪĺìĤ¬": 1980,
      "Ġê¸°ë°ĺ": 1981,
      "300": 1982,
      "ìŀĪëĬĶ": 1983,
      "199": 1984,
      "ê±°ë¦¬": 1985,
      "ĠìķĦëĭĪëĭ¤": 1986,
      "ĠìķĬëĬĶëĭ¤": 1987,
      "ĠíĴį": 1988,
      "ëĿ¼ìĦľ": 1989,
      "ĠìķĬìĿĦ": 1990,
      "ľĺ": 1991,
      "ì½ľ": 1992,
      "ĠìĬ¤ë§ĪíĬ¸": 1993,
      "Ġìŀ¥ê´Ģ": 1994,
      "Ġë¹Ħë¡¯": 1995,
      "íĶĦíĬ¸": 1996,
      "ìĹĨìĿ´": 1997,
      "ëŁ¬ìĬ¤": 1998,
      "ĠìŀĪì§Ģë§Į": 1999,
      "ĠíĺĦëĮĢ": 2000,
      "Ġìľ¼ë¡ľìĦľ": 2001,
      "ìĸ¼": 2002,
      "ĠëŃ": 2003,
      "Ġê·¸ê²ĥ": 2004,
      "ĠìĦľë¡ľ": 2005,
      "áĨ": 2006,
      "Ġëª©íĳľ": 2007,
      "ĠìŀĪëĬĶëį°": 2008,
      "íĻĺê²½": 2009,
      "ĠíĺĦìŀ¥": 2010,
      "ìĸ´ìĦľ": 2011,
      "Ģë¡ľë²Į": 2012,
      "ĠíĴĢ": 2013,
      "ĠìŀĳìĹħ": 2014,
      "ìģ": 2015,
      "íĴį": 2016,
      "ĠíĻ©": 2017,
      "Ġê°Ģì¹ĺ": 2018,
      "áĨŀ": 2019,
      "ëįķ": 2020,
      "Ġìĭ¤ìłľ": 2021,
      "íļĮìĿĺ": 2022,
      "Ġë¨¼": 2023,
      "ìľĦê¸°": 2024,
      "ĠíĻķë³´": 2025,
      "áĦıáĦı": 2026,
      "Ġìĺ¤ìłĦ": 2027,
      "Ġíĺģ": 2028,
      "Ġë¹ĦêµĲ": 2029,
      "Ġíķ´ìĻ¸": 2030,
      "¤ëĭ¤": 2031,
      "ìĶ©": 2032,
      "Ġê¸°ë³¸": 2033,
      "íĥķ": 2034,
      "ëłµ": 2035,
      "70": 2036,
      "ìĻķ": 2037,
      "íķĺìĺĢ": 2038,
      "ìķŀ": 2039,
      "Ġë£¨": 2040,
      "Ġìļ¸": 2041,
      "ê°ľë°ľ": 2042,
      "Ġë¬¼ë¡ł": 2043,
      "ĠìŀĲê¸°": 2044,
      "ìĽĮíģ¬": 2045,
      "Ġê¸Īì§Ģ": 2046,
      "Ġë§ĮëĤĺ": 2047,
      "ĠìĿĺê²¬": 2048,
      "ĠìĭľëĮĢ": 2049,
      "ĳ¸": 2050,
      "Ġë§Īëĭ¤": 2051,
      "ê²½ê¸°": 2052,
      "Ġê°Ļëĭ¤": 2053,
      "ê´´": 2054,
      "Ġì§ĳì¤ĳ": 2055,
      "Ġíķĺì§Ģ": 2056,
      "Ġìłķìĥģ": 2057,
      "Ġëĭµ": 2058,
      "ĠìĦłìłķ": 2059,
      "ìĿ´ëĵ¤": 2060,
      "ëĲĺìĹĪ": 2061,
      "ĠëĮĢë¶Ģë¶Ħ": 2062,
      "íĭĢ": 2063,
      "Ġë³¸ë¬¸": 2064,
      "ĠíļĮìŀ¥": 2065,
      "Ġê·¸ëĵ¤": 2066,
      "íĹĮ": 2067,
      "ëĿ¼ë©°": 2068,
      "ĠìłĦê¸°": 2069,
      "ìķĮ": 2070,
      "Ġë§¡": 2071,
      "íķľëĭ¤ëĬĶ": 2072,
      "ĠíĳľíĺĦ": 2073,
      "Ġë³´ìĿ¸ëĭ¤": 2074,
      "ĠíĺĲìĿĺ": 2075,
      "ĠìĹ¬ê¸°": 2076,
      "Ġê°ĲìĨĮ": 2077,
      "ĠìĤ¬ê³ł": 2078,
      "ë¤Ħ": 2079,
      "Ġíĺĳëł¥": 2080,
      "ëıĦìĭľ": 2081,
      "31": 2082,
      "ĠìķĶ": 2083,
      "ĠìĥģíĴĪ": 2084,
      "ĠëĽ": 2085,
      "ëĭ¨ì²´": 2086,
      "Ġê¿": 2087,
      "ëŀ«": 2088,
      "ĠìŀĪê¸°": 2089,
      "ì§Ģë§ī": 2090,
      "ĠìĺģìĹŃ": 2091,
      "ĠìĦłê±°": 2092,
      "Ġê°ľìµľ": 2093,
      "ìĥĿíĻľ": 2094,
      "ë·°": 2095,
      "ĠìŀĲìĹ°": 2096,
      "ĠìĿ¸íķ´": 2097,
      "ĠìŀĪê²Į": 2098,
      "íķľëĭ¤ê³ł": 2099,
      "ëĮĢíķľ": 2100,
      "Ġìľ¼ë¡ľë¶ĢíĦ°": 2101,
      "ê´Ģê³Ħ": 2102,
      "ĠìķĦì§ģ": 2103,
      "Ġì°¨ëŁī": 2104,
      "Ġìĭłì²Ń": 2105,
      "80": 2106,
      "ĠìĻľ": 2107,
      "Ġë°Ľê³ł": 2108,
      "ĠìĿ¸ìĤ¬": 2109,
      "ì¦ĺ": 2110,
      "ë¥´ê²Į": 2111,
      "ĠëŁ¬": 2112,
      "Ġê³µê²©": 2113,
      "Ġìļ´ëıĻ": 2114,
      "ìĿ´ëĿ¼ë©°": 2115,
      "ëĬĶì§Ģ": 2116,
      "ĠìĿ´ëłĩê²Į": 2117,
      "Ġì¡°ì§ģ": 2118,
      "ĠìłĦëŀµ": 2119,
      "Ġëľ»": 2120,
      "ë³¸ë¬¸": 2121,
      "ì´ī": 2122,
      "Ġìķ¡": 2123,
      "ëĭ¤ê°Ģ": 2124,
      "ëĵ¯": 2125,
      "Ġë°°ìļ°": 2126,
      "Ġì¦ī": 2127,
      "âĶģ": 2128,
      "Ġê¸°íļĮ": 2129,
      "ìĹĦ": 2130,
      "Ġì°©": 2131,
      "Ġì¤ĳìķĻ": 2132,
      "ĠìĿ´ìłĦ": 2133,
      "ĠëĤ´ì§Ģ": 2134,
      "ĠëĤĺìĺ¨": 2135,
      "ĠìĦ¤ëªħíĸĪëĭ¤": 2136,
      "ëĥ¥": 2137,
      "Ġë°ĽìĿĢ": 2138,
      "ĵ¨": 2139,
      "Ġìĥģëĭ¹": 2140,
      "ìĻĶ": 2141,
      "Ġê·ľìłķ": 2142,
      "ê·Ģ": 2143,
      "ĠìłĦëĭ¬": 2144,
      "Ġìļ°ëł¤": 2145,
      "ìĽł": 2146,
      "Ġêµ¬ì¶ķ": 2147,
      "ĠëĨĢ": 2148,
      "Ġë¸Įëŀľëĵľ": 2149,
      "íļĮìĤ¬": 2150,
      "°ëĭ¤": 2151,
      "ĠìĦ¼": 2152,
      "Ġêµ": 2153,
      "ìĻĦ": 2154,
      "Ġì¡°ê¸Ī": 2155,
      "ê·¸ëŁ°": 2156,
      "ĠëĽ°": 2157,
      "ĠìĹ¬íĸī": 2158,
      "Ġíķ´ìķ¼": 2159,
      "ĠëıĦìŀħ": 2160,
      "Ġê²°íķ©": 2161,
      "ĠìķĪìłķ": 2162,
      "Ġê²Ģì°°": 2163,
      "ĠëıĻìĭľ": 2164,
      "ê²łëĭ¤ëĬĶ": 2165,
      "Ġë°ĺìĿĳ": 2166,
      "Ġê²©": 2167,
      "ĠìĿ½": 2168,
      "ëī´": 2169,
      "Ġì¹ľêµ¬": 2170,
      "ìħĶ": 2171,
      "Ġìĭłíĺ¸": 2172,
      "¢°": 2173,
      "ĠìķĦë¬´": 2174,
      "íĭ¸": 2175,
      "Ġì´ī": 2176,
      "ĠìĤ´ìķĦ": 2177,
      "ìĭ±": 2178,
      "Ġëħ¼ìĿĺ": 2179,
      "ë¢°": 2180,
      "íĮĮíĬ¸": 2181,
      "ĠìľĦíĹĺ": 2182,
      "ë³´ê³ł": 2183,
      "ëĭ¤ë©´": 2184,
      "ìĩĦ": 2185,
      "ëłĪìĬ¤": 2186,
      "®¤": 2187,
      "Ġì»´": 2188,
      "ĠíĬ¹ì§ķ": 2189,
      "Ġì§ĢëĤĺ": 2190,
      "ìĿ¸ê°Ģ": 2191,
      "ëĤ´ëĬĶ": 2192,
      "ìĺģíĻĶ": 2193,
      "ë¨¸ëĭĪ": 2194,
      "ì£¼ìĭľ": 2195,
      "ë¦¬ì§Ģ": 2196,
      "ìĿ´ëŁ¬íķľ": 2197,
      "Ġë°ľê²¬": 2198,
      "ĠìĿĺìĤ¬": 2199,
      "Ġì¶ľìĭľ": 2200,
      "Ġê½": 2201,
      "ìĦ¸ê³Ħ": 2202,
      "íı¬ì¸ł": 2203,
      "ì¹ĺëĬĶ": 2204,
      "ĠìĿ´ìłľ": 2205,
      "Ġíķĺë£¨": 2206,
      "ê³µìĤ¬": 2207,
      "Ġìĸ´ë¦°": 2208,
      "ĠìĬ¬": 2209,
      "ìĨĮë¦¬": 2210,
      "Ġìłķë§Ĳ": 2211,
      "ìĸ´ëıĦ": 2212,
      "íĩ´": 2213,
      "Ġê°ĢëĬ¥íķľ": 2214,
      "ìĹħì²´": 2215,
      "Ġìłľíķľ": 2216,
      "ĠìķĮê³ł": 2217,
      "Ġë°ĶìĿ´": 2218,
      "ê°ĢëĬ¥": 2219,
      "ìĿ¸íĬ¸": 2220,
      "ìı": 2221,
      "ĠëĤĺëĿ¼": 2222,
      "Ġê²ĢìĤ¬": 2223,
      "ĠìķĬìķĦ": 2224,
      "ĠíĺĦìĭ¤": 2225,
      "Ġê³ĦíļįìĿ´ëĭ¤": 2226,
      "ë¯¸êµŃ": 2227,
      "ĠìłĦìŀĲ": 2228,
      "ĠíĴĪ": 2229,
      "Ġíķĺê¸°": 2230,
      "ë¶Ļ": 2231,
      "íĵ¨": 2232,
      "ĠìĮ": 2233,
      "íķĺëĬĶëį°": 2234,
      "Ġê²ĥìŀħëĭĪëĭ¤": 2235,
      "ĠìĻķ": 2236,
      "ìĹ°íķ©": 2237,
      "ĠëĵľëŁ¬": 2238,
      "ì§ĢíĦ¸": 2239,
      "ĠìĿ´ë¤Ħ": 2240,
      "íı¼": 2241,
      "ĬìĿĢ": 2242,
      "ë¡¤": 2243,
      "Ġê¸Ģë¡ľë²Į": 2244,
      "ĠíĹ¤": 2245,
      "ĠìļĶì²Ń": 2246,
      "Ġëª¨ëį¸": 2247,
      "Ġëĵ±ìŀ¥": 2248,
      "ì¹ł": 2249,
      "ìłķì±ħ": 2250,
      "ĠìĿ¸ìĭĿ": 2251,
      "Ġìłľìĭľ": 2252,
      "Ġìĸ¼ë§Ī": 2253,
      "ĠëĲĺìĹĪëĭ¤": 2254,
      "Ġê³¼íķĻ": 2255,
      "Ġëĵ¯": 2256,
      "Ġì£¼ë³Ģ": 2257,
      "ìļ´ëıĻ": 2258,
      "Ġì°¨ìĿ´": 2259,
      "ĺê¸°": 2260,
      "ĠìłĦë¬¸ê°Ģ": 2261,
      "Ġì°¸ìĦĿ": 2262,
      "Ġë°ĺëĮĢ": 2263,
      "Ġíıīê·ł": 2264,
      "ìĨĮëħĦ": 2265,
      "ìĦ±íĻĶ": 2266,
      "íĶĦë¡ľ": 2267,
      "Ġê±°ë¦¬": 2268,
      "ë²Īíĺ¸": 2269,
      "ëĶ°ëĿ¼ìĦľ": 2270,
      "íŀĮ": 2271,
      "âĺ": 2272,
      "Ġê±°ëŀĺ": 2273,
      "Ġíİ¼": 2274,
      "ìĿ´ì§Ģë§Į": 2275,
      "ĠìĹĲëĦĪì§Ģ": 2276,
      "Ġë¶Ģëĭ´": 2277,
      "ĠëĲĺê³ł": 2278,
      "ê²½ì°°": 2279,
      "áĦĴ": 2280,
      "ìĭľì¼ľ": 2281,
      "Ġêµ¬ì²´": 2282,
      "Ġë°ĶëŀĮì§ģ": 2283,
      "ĠíĮĶ": 2284,
      "ĠíķĦìļĶíķĺëĭ¤": 2285,
      "ĠëĬ¥ëł¥": 2286,
      "Ġê°Ģì§Ħ": 2287,
      "Ġê±": 2288,
      "Ġìĺ¨ëĿ¼ìĿ¸": 2289,
      "ìħ¨": 2290,
      "ëŁ¼íĶĦ": 2291,
      "Ġë³´ëıĦ": 2292,
      "Ġìĸ´ëłµ": 2293,
      "ĠíĿĲ": 2294,
      "Ġë°©ìķĪ": 2295,
      "íķĺìŀĲ": 2296,
      "ĠëĮĢë¡ľ": 2297,
      "Ġì¶©ë¶Ħ": 2298,
      "íĤ¹": 2299,
      "ëĥĪëĭ¤": 2300,
      "ĠìĨĮê°ľ": 2301,
      "íľ´": 2302,
      "ĠìĿ´íķĺ": 2303,
      "ì²Ļ": 2304,
      "Ġê²°êµŃ": 2305,
      "ê²¼": 2306,
      "Ġê»ĺ": 2307,
      "ĠìłĦíĸĪëĭ¤": 2308,
      "ĠíĻĺìŀĲ": 2309,
      "ëįĶëĿ¼ëıĦ": 2310,
      "íĻį": 2311,
      "ìĭľíĤ¤ëĬĶ": 2312,
      "ê²łìĬµëĭĪëĭ¤": 2313,
      "ì¡¸": 2314,
      "Ġë°°ì¹ĺ": 2315,
      "ëĭĿ": 2316,
      "ĠìķĮìķĦ": 2317,
      "Ġêµ¬ë§¤": 2318,
      "Ġê²½ìĺģ": 2319,
      "ìĺ¥": 2320,
      "Ġì¡°ì¹ĺ": 2321,
      "ì¶ĺ": 2322,
      "Ġë¨¼ìłĢ": 2323,
      "ì§Ģì§Ģ": 2324,
      "ìĸ´ëĤľ": 2325,
      "Ġíķµìĭ¬": 2326,
      "Ġë²Īì§¸": 2327,
      "ë¯¼êµŃ": 2328,
      "Ġë¯¿": 2329,
      "íĺĦìŀ¬": 2330,
      "ĠìĦ¸ìĥģ": 2331,
      "ĠìŀĲë£Į": 2332,
      "ëħĦê°Ħ": 2333,
      "ëĮĢíķĻ": 2334,
      "Ġìĺ¬ëĿ¼": 2335,
      "ĠëģĮ": 2336,
      "Ġíı´": 2337,
      "Ġë¶Ģì¡±": 2338,
      "ĠìĹ¬ë¶Ģ": 2339,
      "íĸĪì§Ģë§Į": 2340,
      "ĠìĿ¸ê¸°": 2341,
      "Ġì±": 2342,
      "ĠìĦĿ": 2343,
      "Ġê°ķì¡°íĸĪëĭ¤": 2344,
      "ëĲĺë©°": 2345,
      "Ġíķĺë©´": 2346,
      "ë°ĶìĿ´": 2347,
      "ëĶĶìĺ¤": 2348,
      "ĩĮ": 2349,
      "íķĺê²łëĭ¤": 2350,
      "ĠìĻ¸êµŃ": 2351,
      "ê·¸ë£¹": 2352,
      "Ġë³Ģê²½": 2353,
      "Ġë¹ĦíĮĲ": 2354,
      "Ġê°ĲìĹ¼": 2355,
      "Ġê´Ģê´ĳ": 2356,
      "Ġì°¨ì§Ģ": 2357,
      "Ġê³µê³µ": 2358,
      "íĶĮëłĪìĿ´": 2359,
      "Ġê¾¸": 2360,
      "ĠìľłëŁ½": 2361,
      "ĠíĨµìĭł": 2362,
      "Ġíĸīìłķ": 2363,
      "ĠìĿĺë£Į": 2364,
      "ĠìĺĪìĤ°": 2365,
      "ĠíĨµíķ©": 2366,
      "ì¼ĵ": 2367,
      "ĠëıĻìĿ¼": 2368,
      "ë¶Īìĸ´": 2369,
      "Ġê³Ħìķ½": 2370,
      "íĻľëıĻ": 2371,
      "ĠìĦ¤ìłķ": 2372,
      "ëĭ¥": 2373,
      "ĠëĶĶìŀĲìĿ¸": 2374,
      "Ġë¹Ħìļ©": 2375,
      "Ġì¢Į": 2376,
      "ìĿ´ìŀĲ": 2377,
      "ĠëĦ£": 2378,
      "ìĬ¤ë¡ľ": 2379,
      "Ġìĭľë¯¼": 2380,
      "ë¶Ģìŀ¥": 2381,
      "Ġì½ĺíħĲì¸ł": 2382,
      "Ġê°ľìłķ": 2383,
      "ĠìłľëıĦ": 2384,
      "ĠìĿ¸íĦ°ëĦ·": 2385,
      "Ġê¿Ī": 2386,
      "êº": 2387,
      "ĠìĿĮìķħ": 2388,
      "ĠíĸīëıĻ": 2389,
      "Ġë°Ľìķĺëĭ¤": 2390,
      "ĠìĤ¬íļĮìłģ": 2391,
      "Ġëĥī": 2392,
      "ĠìĿĮìĭĿ": 2393,
      "ĠìĽĢ": 2394,
      "ĠìĿ¼ìłķ": 2395,
      "íĪ¬ìŀĲ": 2396,
      "ì¶°": 2397,
      "ëŀĳìĬ¤": 2398,
      "ĠìĹħì²´": 2399,
      "Ġë´ī": 2400,
      "ĠíĻķì§Ħ": 2401,
      "ĠëĪĦêµ¬": 2402,
      "ìĸ¸ë¡ł": 2403,
      "Ġê°ĸê³ł": 2404,
      "Ġìı": 2405,
      "Ġê°ĲìĤ¬": 2406,
      "ĠìĪĺì¶ľ": 2407,
      "Ġíĺ¹": 2408,
      "ëĵľëĬĶ": 2409,
      "Ġì¶Ķì²ľ": 2410,
      "Ġê±´ìĦ¤": 2411,
      "Ġìµľì´Ī": 2412,
      "Ġì§Īë¬¸": 2413,
      "Ġê¸°ìĸµ": 2414,
      "Ġëī´": 2415,
      "Ġê·¸ëłĩ": 2416,
      "Ġê²¬": 2417,
      "ìĽ¨ìĸ´": 2418,
      "Ġê¸°ê´Ģ": 2419,
      "Ġê³µìĭĿ": 2420,
      "ë²¨": 2421,
      "90": 2422,
      "Ġíĺģìĭł": 2423,
      "Ġë§Įëĵł": 2424,
      "ĠìĻ¸ë¶Ģ": 2425,
      "ĠìłķíĻķ": 2426,
      "ķµ": 2427,
      "íķµ": 2428,
      "ĠìĤ¬ë¡Ģ": 2429,
      "ë°ĶìĿ¼": 2430,
      "ĠëĦĺìĸ´": 2431,
      "ĠìĤ¬íķŃ": 2432,
      "Ġíķľëĭ¤ëĬĶ": 2433,
      "Ġíĳľìĭľ": 2434,
      "ë§¹": 2435,
      "ì´Į": 2436,
      "ĠìĿ´ë¯¸ì§Ģ": 2437,
      "ìłĿ": 2438,
      "Ġì§Ģê¸ī": 2439,
      "ìĹĪëįĺ": 2440,
      "Ġëı¼": 2441,
      "ĠìĦłë³´": 2442,
      "Ġë²ĶìľĦ": 2443,
      "íĬ¸ìĽĮíģ¬": 2444,
      "Ġìłķìĭł": 2445,
      "ë³ĳìĽĲ": 2446,
      "ĠìłĢìŀ¥": 2447,
      "ĠìŀĲëıĻì°¨": 2448,
      "Ġê±°ìĿĺ": 2449,
      "ĠìĨĶ": 2450,
      "ĠìłľìĻ¸": 2451,
      "Ġì§ĢëıĦ": 2452,
      "ìĿ´ëĤł": 2453,
      "Ī¼": 2454,
      "Ġë¶Ļ": 2455,
      "ìŀ¥ì¹ĺ": 2456,
      "ì»¨": 2457,
      "íķĻìĥĿ": 2458,
      "ê°Ĵ": 2459,
      "ëĭ¤ë§Į": 2460,
      "ĠìĿ´ëģ": 2461,
      "ê¸°ê°Ħ": 2462,
      "ĠìĿĺíķľ": 2463,
      "ë³µì§Ģ": 2464,
      "Ġìłľê¸°": 2465,
      "ìĭľì§Ģ": 2466,
      "ëĲĺë©´": 2467,
      "ë¡¯ëį°": 2468,
      "ìĤ¬ì§Ħ": 2469,
      "ìĿ´íģ¬": 2470,
      "Ġê¹¨": 2471,
      "ì¢Į": 2472,
      "Ġê²ª": 2473,
      "ë¦¬ê¸°": 2474,
      "ë²Ħì§Ģ": 2475,
      "Ġìĭľì¦Į": 2476,
      "ëıĻìĤ°": 2477,
      "Ġë§Īì§Ģë§ī": 2478,
      "ĠëĤ´ëħĦ": 2479,
      "ĠìĤ¬ë§Ŀ": 2480,
      "ìĦľë¹ĦìĬ¤": 2481,
      "ëĭĪìĬ¤": 2482,
      "Ġê³µìłķ": 2483,
      "Ġë§¤ì¶ľ": 2484,
      "ĠìĹĨìĹĪëĭ¤": 2485,
      "Ġìĸĺê¸°": 2486,
      "ĠìĺģêµŃ": 2487,
      "Ġìī½ê²Į": 2488,
      "ëŀ«íı¼": 2489,
      "ìĽĥ": 2490,
      "ĠìľĦíķĺìĹ¬": 2491,
      "Ġê³łìłķ": 2492,
      "áħ": 2493,
      "ìĿĺíļĮ": 2494,
      "35": 2495,
      "Ġíĩ´": 2496,
      "120": 2497,
      "ĠìĬ¤íĬ¸": 2498,
      "ĠìłľëĮĢë¡ľ": 2499,
      "ĠìĽĢì§ģ": 2500,
      "Ġê³µìľł": 2501,
      "ĠìłĦíĻĺ": 2502,
      "ĠìĹĲìĦł": 2503,
      "ĠëĳĲê³ł": 2504,
      "ê°ĻìĿĢ": 2505,
      "ê¸Īìľµ": 2506,
      "ìĹ¬ê¸°": 2507,
      "ĠìŀĶ": 2508,
      "Ġì§ķ": 2509,
      "ë¬´ìĽĲ": 2510,
      "Ġê°Ģê¹Į": 2511,
      "ìĦ¸ëĮĢ": 2512,
      "¬ìĺģ": 2513,
      "Ġíĸ¥ìĥģ": 2514,
      "ìķĪìłĦ": 2515,
      "ĠëĤ´ëł¤": 2516,
      "ë¥´ê³ł": 2517,
      "íİĺìĿ´ì§Ģ": 2518,
      "ĠëŁ¬ìĭľìķĦ": 2519,
      "Ġê·¸ëłĩê²Į": 2520,
      "ìĿĺìĽĲ": 2521,
      "110": 2522,
      "ê³Ħíļį": 2523,
      "ìľ¼ëĭĪ": 2524,
      "ĠìĥĿìĦ±": 2525,
      "000": 2526,
      "ĠíĻķìĤ°": 2527,
      "ëª»": 2528,
      "ë¦°ëĭ¤": 2529,
      "ĠëĮĢíĻĶ": 2530,
      "ìĻĢëĮĢ": 2531,
      "Ġëķ": 2532,
      "ĠëĮĢêµ¬": 2533,
      "Ġìĥī": 2534,
      "Ġê³¼ê±°": 2535,
      "ëĭ¬ëŁ¬": 2536,
      "Ġíĸīë³µ": 2537,
      "ĠìĿ¸ì²ľ": 2538,
      "Ġìłľì£¼": 2539,
      "ĠìĭľìĦ¤": 2540,
      "ĠíĮ¬": 2541,
      "ĠìĨįëıĦ": 2542,
      "ĠìĽ¹": 2543,
      "ëĭ¤ë¥¸": 2544,
      "ĠíķĻìĥĿëĵ¤": 2545,
      "Ġìļ°ìĪĺ": 2546,
      "ĠíĹĮ": 2547,
      "Ġë¶ĦìľĦê¸°": 2548,
      "íĶĪ": 2549,
      "ìłĿíĬ¸": 2550,
      "Ġìĸ¸ê¸ī": 2551,
      "ëĿ¼ìļ°": 2552,
      "Ġì§Ģìłķ": 2553,
      "ëª°": 2554,
      "ĠíļĮìłĦ": 2555,
      "Ġëħ¹": 2556,
      "ĠìķĦìĿ´ëĵ¤": 2557,
      "ëĭ¨ê³Ħ": 2558,
      "ĠíĸīìľĦ": 2559,
      "ëĮĢíļĮ": 2560,
      "Ġíį¼": 2561,
      "ìĿ´ëŁ°": 2562,
      "Ġê²ĢíĨł": 2563,
      "ê³¤": 2564,
      "ê³¼íķĻ": 2565,
      "ìĤ¬ëĵ¤": 2566,
      "ĠíĬ¹ìłķ": 2567,
      "ĠìĬ¤ìĬ¤ë¡ľ": 2568,
      "ìµľê·¼": 2569,
      "Ġë°ĽìĿĦ": 2570,
      "Ġë°ĸìĹĲ": 2571,
      "ĠìĹ°ê¸°": 2572,
      "ĠëĲĺìĹĪ": 2573,
      "Ġâĸ²": 2574,
      "ìĿ´ëŀĢ": 2575,
      "íĺĪ": 2576,
      "ĠìĹ¼": 2577,
      "ë¡Ńê²Į": 2578,
      "ĠëĬĲëĤĮ": 2579,
      "Ġíķ©ìĿĺ": 2580,
      "Ġê²¨": 2581,
      "ĠìŀĳìĿĢ": 2582,
      "ìľĦìĽĲìŀ¥": 2583,
      "ĠíĿĶ": 2584,
      "ĠìĪ¨": 2585,
      "ìĬ¤ëŁ¬": 2586,
      "ĠìļĶìĨĮ": 2587,
      "Ġìĭľê¸°": 2588,
      "íľĺ": 2589,
      "ĠìµľìĨĮ": 2590,
      "Ġìŀ¥ìķł": 2591,
      "íķĺëįĺ": 2592,
      "ìłĦíĻĶ": 2593,
      "íĵ¨íĦ°": 2594,
      "ĠíĨµíķľ": 2595,
      "Ġê°ģì¢ħ": 2596,
      "ì£¼íĥĿ": 2597,
      "Ġì°į": 2598,
      "ìī¬": 2599,
      "Ġê³łë¯¼": 2600,
      "Ġìĭ¸": 2601,
      "ëĦ¤ìļĶ": 2602,
      "ê²łëĭ¤ê³ł": 2603,
      "Ġë¹Ħíķ´": 2604,
      "ĠëĶĶì§ĢíĦ¸": 2605,
      "Ġì°¸ê°Ģ": 2606,
      "ĠíļĮìĿĺ": 2607,
      "Ġë°ĺìĺģ": 2608,
      "Ġì¸¡ìłķ": 2609,
      "ëł¤ê³ł": 2610,
      "ĠìķĬëĭ¤": 2611,
      "ëŀĻ": 2612,
      "ãĢĲ": 2613,
      "Ġìĸ¸ë¡ł": 2614,
      "ĠìľĦê¸°": 2615,
      "ĠëĮĢìĭł": 2616,
      "Ġëĵ±ë¡Ŀ": 2617,
      "ĠìĦ±ê³¼": 2618,
      "ë¨¹": 2619,
      "ê°ĳ": 2620,
      "Ġì£¼ë¯¼": 2621,
      "Ġê°ĢëĬ¥íķĺëĭ¤": 2622,
      "ãĢĳ": 2623,
      "ĠíĮĮìķħ": 2624,
      "ĠìĿ´ê²ĥ": 2625,
      "Ġëį§": 2626,
      "ĠìķĦëŀĺ": 2627,
      "ëĲĺê¸°": 2628,
      "ìĽ¨": 2629,
      "ĠìĪĻ": 2630,
      "Ġì²¨": 2631,
      "íĤ¬": 2632,
      "Ġëĭ¬ë¦¬": 2633,
      "ëıĦì²´": 2634,
      "ë¦¼íĶ½": 2635,
      "Ġìµľì¢ħ": 2636,
      "íĻĢ": 2637,
      "ĠíļĮìĽĲ": 2638,
      "ë¹Ī": 2639,
      "âĶģâĶģ": 2640,
      "Ġê´ĳê³ł": 2641,
      "ê¸°ìŀĲ": 2642,
      "ë§¨": 2643,
      "Ġâĸ³": 2644,
      "Ġëħ¼ëŀĢ": 2645,
      "ĠëĨĴìķĦ": 2646,
      "ë³´íĹĺ": 2647,
      "Ġë²Ĺ": 2648,
      "íĸĪëĭ¤ëĬĶ": 2649,
      "ìĹĺ": 2650,
      "Ġì¸¡ë©´": 2651,
      "Ġëª»íķľ": 2652,
      "ĠíĬ¹ìĦ±": 2653,
      "ĠìķĦíĮĮíĬ¸": 2654,
      "ĠìĺĪë°©": 2655,
      "ì½Ķë¦¬ìķĦ": 2656,
      "Ġíķ´ìĦľ": 2657,
      "Ġì¡°ê±´": 2658,
      "198": 2659,
      "ë¯¼ì£¼ëĭ¹": 2660,
      "Ġì£¼ëª©": 2661,
      "ìĶĢ": 2662,
      "400": 2663,
      "ĠìłĦìŁģ": 2664,
      "ë¹ł": 2665,
      "íķĺëĤĺ": 2666,
      "ëĿ¼ë§Ī": 2667,
      "Ġê¶ģ": 2668,
      "ĠìĽĲìĿ¸": 2669,
      "ìĤ¬ëŀĮ": 2670,
      "ĠìłľìķĪ": 2671,
      "Ġíķĺë©°": 2672,
      "Ġë²ķë¥ł": 2673,
      "ĠíĻľìĦ±íĻĶ": 2674,
      "íĻĶëĲľ": 2675,
      "Ġíļ¨ìľ¨": 2676,
      "Ġì¤ĳìĨĮ": 2677,
      "âĢĺ": 2678,
      "ĠìĨĮìĨį": 2679,
      "ëħĦëĮĢ": 2680,
      "Ġê³µìĹ°": 2681,
      "ĠìĿ¸ìĥģ": 2682,
      "ëłī": 2683,
      "ë²¤íĬ¸": 2684,
      "ĠíĶĮëŀ«íı¼": 2685,
      "ĠíŀĪ": 2686,
      "ĠìľĦìĽĲìŀ¥": 2687,
      "ëį°ìĿ´": 2688,
      "ê·¸ëŀĺìĦľ": 2689,
      "ëŁŃ": 2690,
      "ìĬ¤ëŁ½": 2691,
      "ë°ĺê¸°": 2692,
      "ì¤ĳêµŃ": 2693,
      "Ġëĵ£": 2694,
      "Ġê°Ģìŀħ": 2695,
      "âĪ¼": 2696,
      "ìķĦìĿ´": 2697,
      "ĠìĦ¤ë¦½": 2698,
      "ĠíķĺìĹ¬": 2699,
      "íĤ¨": 2700,
      "ìĭľíĤ¬": 2701,
      "ì©": 2702,
      "ë¦¬ì¹´": 2703,
      "ĠìĽĥ": 2704,
      "ìĸ´ëĵ¤": 2705,
      "ĠíĿ¡": 2706,
      "Ġë¹¨": 2707,
      "ĠìĤ¬ë¬´": 2708,
      "Ġê²ĥìĿ´ëĿ¼ê³ł": 2709,
      "ĠìĺģìĹħ": 2710,
      "ĠìĪĺìĿµ": 2711,
      "ë§İ": 2712,
      "Ġë³´ìľł": 2713,
      "Ġê¸°ì´Ī": 2714,
      "ê·ľëª¨": 2715,
      "ĠìĪĺìļĶ": 2716,
      "Ġìļ°ìĦł": 2717,
      "Ġë¯¼ì£¼": 2718,
      "ĠìĤ¬ìłĦ": 2719,
      "ì¦ī": 2720,
      "Ġì§ĢëĤľëĭ¬": 2721,
      "Ġìŀ¬íĮĲ": 2722,
      "ìĬ·": 2723,
      "Ġë³´ëĬĶ": 2724,
      "Ġëª¨ë°ĶìĿ¼": 2725,
      "Ġìľłëªħ": 2726,
      "ĠëıĦìłĦ": 2727,
      "ãĢĮ": 2728,
      "Ġê·¸ëĮĢë¡ľ": 2729,
      "ì½©": 2730,
      "ëĭĲ": 2731,
      "ãĢį": 2732,
      "ì§Ģê¸Ī": 2733,
      "íļĮìŀ¥": 2734,
      "Ġíĭ°": 2735,
      "Ġì¶ľìĹ°": 2736,
      "Ġì²´ê²°": 2737,
      "ì¹ĺê³ł": 2738,
      "ìĸ´ìķ¼": 2739,
      "ĠëĮĢì¶ľ": 2740,
      "ë¦¬ê·¸": 2741,
      "ê±°ëŀĺ": 2742,
      "íĸĪìĿĦ": 2743,
      "Ġë³ĳìĽĲ": 2744,
      "ê³¼ìłķ": 2745,
      "ĠëıħìĿ¼": 2746,
      "Ġê·¸ëŀĺ": 2747,
      "ĠëĤĺíĥĢëĤ¬ëĭ¤": 2748,
      "Ġì£¼ìłľ": 2749,
      "ĠìķŀìĦľ": 2750,
      "Ġë¬´ëĭ¨": 2751,
      "Ġëį§ë¶Ļ": 2752,
      "íĺ¸ìĤ¬": 2753,
      "Ġìºł": 2754,
      "Ġì£¼íĥĿ": 2755,
      "ĠìŀĲìĦ¸": 2756,
      "ìĦŃ": 2757,
      "Ġìļ°ë¦¬ëĤĺëĿ¼": 2758,
      "ëĬĲëĥĲ": 2759,
      "ĠëĲ©ëĭĪëĭ¤": 2760,
      "íİ´": 2761,
      "Ġê°ĳ": 2762,
      "íĬľ": 2763,
      "ìĿ´ìħĺ": 2764,
      "ëĲĺë©´ìĦľ": 2765,
      "ĠëĿ¼ìĿ´": 2766,
      "ĠíĬ¸ëŁ¼íĶĦ": 2767,
      "Ġë¹Ī": 2768,
      "íİĺìĿ¸": 2769,
      "Ġë¶Ħëĵ¤": 2770,
      "Ġì¶ľìĭł": 2771,
      "ĠìłķìĿĺ": 2772,
      "ĠëĦ¤íĬ¸ìĽĮíģ¬": 2773,
      "ĠìĨĮìŀ¬": 2774,
      "Ġë°©ì§Ģ": 2775,
      "Ġê·¸ë£¹": 2776,
      "Ġì£¼ëĬĶ": 2777,
      "Ġë°ĽëĬĶ": 2778,
      "ĠìĪľê°Ħ": 2779,
      "ìĪĺë¡Ŀ": 2780,
      "Ġìłľê³µíķĺëĬĶ": 2781,
      "ìķĦìļĶ": 2782,
      "âĺŀ": 2783,
      "Ġê°Ģìł¸": 2784,
      "ĠíĶĮëłĪìĿ´": 2785,
      "Ġìłľì¶ľ": 2786,
      "33": 2787,
      "Ġìĸ´ëĶĶ": 2788,
      "ì£¼ê³ł": 2789,
      "Ġìłĳê·¼": 2790,
      "Ġì§ĢìĭĿ": 2791,
      "ĠìŀĪëįĺ": 2792,
      "Ġë°¤": 2793,
      "ëĵ±íķĻêµĲ": 2794,
      "Ġë§ĲìĶĢ": 2795,
      "Ġìĸµ": 2796,
      "Ġëĭ´ëĭ¹": 2797,
      "ê°Ķëĭ¤": 2798,
      "ĠìĿĺíĺ¹": 2799,
      "ĠìĪĺìĥģ": 2800,
      "ĠëĤĺìĦľ": 2801,
      "ëŀĲëĭ¤": 2802,
      "ĠëĮĢíķĺìĹ¬": 2803,
      "ĠëįĶë¶Īìĸ´": 2804,
      "ĠëĮĢíķľë¯¼êµŃ": 2805,
      "ĠëĮĢíļĮ": 2806,
      "íŀĪëł¤": 2807,
      "íķĺìĭľ": 2808,
      "êº¼": 2809,
      "Ġì¤ĳìĿ¸": 2810,
      "Ġìĭłê³ł": 2811,
      "íĬ¼": 2812,
      "Ġìĸ´ëł¤ìļ´": 2813,
      "Ġë³´ìĿ´ëĬĶ": 2814,
      "ĠíĶĦë¦¬": 2815,
      "Ġê·ľìłľ": 2816,
      "Ġì¡°ìĦł": 2817,
      "Ġì°¸ì¡°": 2818,
      "ìļ´ëĵľ": 2819,
      "ìłĦë¬¸": 2820,
      "Ġì¡°ìłķ": 2821,
      "Ġë©Ģ": 2822,
      "ë¦¿": 2823,
      "ĠìĿ¸ëıĦ": 2824,
      "êµŃë¯¼": 2825,
      "ĠìĽĮ": 2826,
      "Ġìĩ¼": 2827,
      "ëĮĢíķĻêµĲ": 2828,
      "Ġì§ģìĽĲ": 2829,
      "ëĳĲê³ł": 2830,
      "ìĦłê±°": 2831,
      "ĠíĽĪ": 2832,
      "Ġë³´ëĤ´": 2833,
      "ĠìĤ´íİ´": 2834,
      "ĠìĹ¬ìŀĲ": 2835,
      "Ġì§Ħì¶ľ": 2836,
      "ê¸°ëĬĶ": 2837,
      "ê·¸ëŁ°ëį°": 2838,
      "Ġì¿ł": 2839,
      "Ġì²ŃëħĦ": 2840,
      "ĠëĤ¨ìŀĲ": 2841,
      "ĠìłĦíĨµ": 2842,
      "íĸĪìľ¼ë©°": 2843,
      "ì³¤ëĭ¤": 2844,
      "ìĺ¤ëĬĶ": 2845,
      "ĠíĺĪ": 2846,
      "ĠìĪĺìļ©": 2847,
      "ĠìłĢìŀĳê¶ĮìŀĲ": 2848,
      "Ġì´¬ìĺģ": 2849,
      "íıīê°Ģ": 2850,
      "íĨłë¦¬": 2851,
      "ĠêµĲíĨµ": 2852,
      "Ġê³łìļ©": 2853,
      "Ġíŀĺëĵ¤": 2854,
      "ĠìłĦìĭľ": 2855,
      "ì»¬": 2856,
      "Ġë³µìĪĺ": 2857,
      "Ġë¹ĦìĬ·": 2858,
      "ìĿ¸ê³µ": 2859,
      "ìĭľíĤ¨": 2860,
      "ĠíĶĦë¡ľìłĿíĬ¸": 2861,
      "ĠìłĦíĻĶ": 2862,
      "Ġìŀħëł¥": 2863,
      "Ġë°Ķíĥķ": 2864,
      "ëŁ´": 2865,
      "Ġê´ĳì£¼": 2866,
      "Ġíķ´ëıĦ": 2867,
      "Ġê±°ì³Ĳ": 2868,
      "Ġê¼Ń": 2869,
      "ìĿ´íķĺ": 2870,
      "ĠìľĦë°ĺ": 2871,
      "ìłķì¹ĺ": 2872,
      "Ġë¯¼ì£¼ëĭ¹": 2873,
      "Ġëĭ¨ìĪľ": 2874,
      "Ġê°Ĳìłķ": 2875,
      "Ġê°Ģìłķ": 2876,
      "ìĤ¬ìŀ¥": 2877,
      "ê°Ģê³ł": 2878,
      "ĠíıīíĻĶ": 2879,
      "ëĵĪ": 2880,
      "Ġê¸°íļį": 2881,
      "ĠìĤ¬ìŀ¥": 2882,
      "ì¹´ëĵľ": 2883,
      "ë°ľìłĦ": 2884,
      "Ġë³¸ê²©": 2885,
      "Ġì´Ŀë¦¬": 2886,
      "Ġì¢ħíķ©": 2887,
      "ëłĪìŀĦ": 2888,
      "ĠìĦ¬": 2889,
      "ĠìĹ¬ìłĦíŀĪ": 2890,
      "ë²ķìĽĲ": 2891,
      "Ġë§Ŀ": 2892,
      "Ġë§ģ": 2893,
      "ĠìĹ°ìĨį": 2894,
      "ĠìĿ´ë²¤íĬ¸": 2895,
      "Ġëĭ¨ë§Ĳ": 2896,
      "Ġê±´ë¬¼": 2897,
      "Ġì²ŃìĻĢëĮĢ": 2898,
      "Ġê²°íĺ¼": 2899,
      "íĨµìĭłìĤ¬": 2900,
      "ì£¼ìĨĮ": 2901,
      "Ġë¶Ģëª¨": 2902,
      "Ġê°ķëł¥": 2903,
      "Ġìŀĳê°Ģ": 2904,
      "ĠìĿ¸íķľ": 2905,
      "ĠëĲĺë©´": 2906,
      "ëł´": 2907,
      "ì¼ĢíĮħ": 2908,
      "Ġìłľê±°": 2909,
      "Ġëĭ¬ëŁ¬": 2910,
      "ĠíĨµê³¼": 2911,
      "ĠëĬĲëģ¼": 2912,
      "Ġëıħë¦½": 2913,
      "ĠìłĪì°¨": 2914,
      "Ġ&": 2915,
      "Ġìĭłê·ľ": 2916,
      "ĠìĭľëıĦ": 2917,
      "ĠìĨĮë¦¬": 2918,
      "Ġëª©ìĨĮë¦¬": 2919,
      "Ġë¶Īêµ¬": 2920,
      "ĠìĿµ": 2921,
      "Ġëĭ¬ëĿ¼": 2922,
      "32": 2923,
      "ĠíĻĪíİĺìĿ´ì§Ģ": 2924,
      "ĠìłĦíķ´": 2925,
      "ĠìĤ¬ìļ©íķł": 2926,
      "ìĭ¸": 2927,
      "ìĵ°": 2928,
      "Ġíı¬íķ¨íķĺëĬĶ": 2929,
      "ë¦ŃíĦ°": 2930,
      "Ġìĭłë¢°": 2931,
      "Ġíģ¬ê¸°": 2932,
      "ĠìĨĮë¹ĦìŀĲ": 2933,
      "ë¶Ħê¸°": 2934,
      "ĠìŀĳìĦ±": 2935,
      "ĠíĺĦìĥģ": 2936,
      "150": 2937,
      "Ġíķľë²Ī": 2938,
      "ĠìĪĺëıĦ": 2939,
      "ë¬¸ìłľ": 2940,
      "ĠíĶ¼ë¶Ģ": 2941,
      "ë©ĶìĿ¼": 2942,
      "íĨ¤": 2943,
      "ë§İìĿĢ": 2944,
      "Ġìª½": 2945,
      "ĠìĬ¹ë¦¬": 2946,
      "Ġë³´íĹĺ": 2947,
      "Ġë¶Ģìłķ": 2948,
      "45": 2949,
      "36": 2950,
      "Ġìŀ¬ë°°": 2951,
      "ìłģìĿ´ê³ł": 2952,
      "ĠíĿ¥": 2953,
      "Ġë§İëĭ¤": 2954,
      "ĠìĬĪ": 2955,
      "ĠëĤĻ": 2956,
      "ĠìĹĦë§Ī": 2957,
      "ĠíļĮë³µ": 2958,
      "ĠìĹ°ìŀ¥": 2959,
      "ë¦¬ì¦Ī": 2960,
      "Ġëĭ¹ìĭł": 2961,
      "Ġëĭ¬ìĦ±": 2962,
      "ĠíķĺëĿ½": 2963,
      "ë¬´ë¦¬": 2964,
      "Ġì»´íĵ¨íĦ°": 2965,
      "íķĺê³łìŀĲ": 2966,
      "ĠìĭľíĹĺ": 2967,
      "Ġì¤ĳëĭ¨": 2968,
      "ĠíĥĲ": 2969,
      "Ġì¼Ģ": 2970,
      "ĠëĤ¨ìĦ±": 2971,
      "ìļ°ìĬ¤": 2972,
      "Ġë¸Ķë¡Ŀ": 2973,
      "Ġê´Ģëł¨ëĲľ": 2974,
      "íĺĳíļĮ": 2975,
      "ì»µ": 2976,
      "ĠëĦĵ": 2977,
      "ĠíĶĦëŀĳìĬ¤": 2978,
      "ĠìķĦëĵ¤": 2979,
      "Ġìĸ¸ìłľ": 2980,
      "ëĲ©ëĭĪëĭ¤": 2981,
      "ëĢ": 2982,
      "ìĺ¤ëĬĺ": 2983,
      "ĠíĿ¬ë§Ŀ": 2984,
      "ĠëĤĺëĪ": 2985,
      "Ġêµ¬ë¹Ħ": 2986,
      "ĠìĿ¸ë¬¼": 2987,
      "Ġê¸°ëħĲ": 2988,
      "ĠìłĦëł¥": 2989,
      "Ġì£¼ìĭĿ": 2990,
      "Ġê·¸ëħĢ": 2991,
      "ĠìķĦì£¼": 2992,
      "ìĺģìĥģ": 2993,
      "ë®¤": 2994,
      "Ġë¹Į": 2995,
      "ì§Ģë°©": 2996,
      "ĠìĹĨìĸ´": 2997,
      "íĭ±": 2998,
      "ĠìĿ¼ìŀĲë¦¬": 2999,
      "Ġë§¥": 3000,
      "Ġëĭ¨ì²´": 3001,
      "ëŀį": 3002,
      "Ġì²´íĹĺ": 3003,
      "ìĤ¬ìĭ¤": 3004,
      "Ġìĸ¼êµ´": 3005,
      "íĭ´": 3006,
      "Ġëį§ë¶ĻìĺĢëĭ¤": 3007,
      "Ġë¯¼ê°Ħ": 3008,
      "ĠëĩĮ": 3009,
      "Ġë¶ĢëıĻìĤ°": 3010,
      "ĠìĦ¤ê³Ħ": 3011,
      "ì¯": 3012,
      "ìĤ¬ê³ł": 3013,
      "Ġêµ¬íĺĦ": 3014,
      "ëĵľìĭľ": 3015,
      "ĠìĿ´ëģĮ": 3016,
      "ĠíĺĦì§Ģ": 3017,
      "Ġë°©ì¹¨": 3018,
      "ĠëĶ¸": 3019,
      "Ġìĭ¶ìĿĢ": 3020,
      "Ġìī¬": 3021,
      "ĠëĤ©": 3022,
      "ëĭĽ": 3023,
      "ķĢ": 3024,
      "íĻĪ": 3025,
      "34": 3026,
      "Ġë¶Ħë¦¬": 3027,
      "ë³´ëĬĶ": 3028,
      "Ġìŀĥ": 3029,
      "Ġì±ĦëĦĲ": 3030,
      "Ġëįķ": 3031,
      "ĠìĪĺìĭł": 3032,
      "ìŀ¬ìĿ¸": 3033,
      "ìĦ¸ê¸°": 3034,
      "ë§Ľ": 3035,
      "ìĶ¬": 3036,
      "ëĮĢìĥģ": 3037,
      "ì¼ĢìĿ´ìħĺ": 3038,
      "êµŃê°Ģ": 3039,
      "íķĺëł¤ëĬĶ": 3040,
      "ĠìĿĢíĸī": 3041,
      "ĠìłĦìĨ¡": 3042,
      "Ġë§ĮëĵľëĬĶ": 3043,
      "Ġíĺ¹ìĿĢ": 3044,
      "ëł¬": 3045,
      "ì§Ŀ": 3046,
      "ĠìĺĪìĪł": 3047,
      "ìĭľìĬ¤íħľ": 3048,
      "Ġê°ĸëĬĶ": 3049,
      "Ġë´Ĳ": 3050,
      "Ġìŀ¥ê¸°": 3051,
      "ĠìĿ´ìļ©íķĺìĹ¬": 3052,
      "Ġë§Įì¡±": 3053,
      "ëıĪ": 3054,
      "Ġìŀĺëª»": 3055,
      "ë²Īì§¸": 3056,
      "ĠìłĦíĺĢ": 3057,
      "Ġë¶Ħëªħ": 3058,
      "Ġë©Ķìĭľì§Ģ": 3059,
      "Ġìĺ¨ëıĦ": 3060,
      "ãĢİ": 3061,
      "ĠëĮĢíĺķ": 3062,
      "ĠìķłíĶĮ": 3063,
      "ìķĦìĦľ": 3064,
      "ì¤ĳìķĻ": 3065,
      "Ġê·ł": 3066,
      "Ġëª»íķĺê³ł": 3067,
      "Ġìĸ¼ë§ĪëĤĺ": 3068,
      "ãĢı": 3069,
      "Ġíķľëĭ¤ê³ł": 3070,
      "íĸĪëĬĶëį°": 3071,
      "ìłĦìŀ¬": 3072,
      "ìŀĪëĭ¤": 3073,
      "ĠíĻķì§ĦìŀĲ": 3074,
      "ĠíĻįë³´": 3075,
      "ĠëĮĢì²´": 3076,
      "êµĲíĨµ": 3077,
      "ìĿ¼ë³¸": 3078,
      "Ġì¹´ëĵľ": 3079,
      "ĠìĤ¬ìļ©íķĺëĬĶ": 3080,
      "Ġê³¼ìłľ": 3081,
      "Ģëĭ¤": 3082,
      "Ġíĺľ": 3083,
      "Ġë°ĶëĢ": 3084,
      "Ġë¶Īë²ķ": 3085,
      "ìħĢ": 3086,
      "ëĤ©": 3087,
      "Ġì¡¸": 3088,
      "ĠìĭľìłĪ": 3089,
      "ĠìĿ¼ìĥģ": 3090,
      "ëª¬": 3091,
      "ĠìºĲë¦ŃíĦ°": 3092,
      "ì§Ĳ": 3093,
      "Ġë³´ìŀ¥": 3094,
      "ĠëĤĺíĥĢëĤĺ": 3095,
      "Ġìŀ¥ë©´": 3096,
      "ë³´íĺ¸": 3097,
      "ë§¥": 3098,
      "ë¥¸ëĭ¤": 3099,
      "ĠìĿĺë¬´": 3100,
      "ë³´ë©´": 3101,
      "ĠíķĺëĬĶëį°": 3102,
      "Ġì¤ĳìĿ´ëĭ¤": 3103,
      "ìłĢìŀĳê¶ĮìŀĲ": 3104,
      "ĠìĬ¤ë§ĪíĬ¸íı°": 3105,
      "±ìłķ": 3106,
      "íķ©ë¬¼": 3107,
      "ìºĲ": 3108,
      "ĠìŀĪìĿĮ": 3109,
      "ĠëıĻìŀĳ": 3110,
      "Ġë¡¯ëį°": 3111,
      "ë¦¬ìĸ´": 3112,
      "ëħ¸ëıĻ": 3113,
      "ë³¸ë¶Ģ": 3114,
      "ìĿ´íĽĦ": 3115,
      "ë©ĶëĿ¼": 3116,
      "ĠëŃĲ": 3117,
      "ĠëĮĢìĦł": 3118,
      "ĠìķĦìĭľìķĦ": 3119,
      "Ġëĭ¤ìĪĺ": 3120,
      "ì²ĺë¦¬": 3121,
      "ìĺ¬íķ´": 3122,
      "ëĭ¨ì§Ģ": 3123,
      "Ġë°°ì¶ľ": 3124,
      "Ġì°¬": 3125,
      "Ġê²Ģìĥī": 3126,
      "Ġë³´ìķĪ": 3127,
      "Ġê¸°ëĭ¤": 3128,
      "ìłľíĴĪ": 3129,
      "ìĿ´ë²Ħ": 3130,
      "Ġê°ľìĿ¸ìłķë³´": 3131,
      "Ġë¶ĪìķĪ": 3132,
      "ëĭ¤ìĿĮ": 3133,
      "ĠìĻĶëĭ¤": 3134,
      "ê²ĮìŀĦ": 3135,
      "íı´": 3136,
      "Ġíĥĳ": 3137,
      "ìŀĲê¸°": 3138,
      "Ġê³§": 3139,
      "Ġê¹Ĭ": 3140,
      "ë°©íĸ¥": 3141,
      "ìĿ´ë©´": 3142,
      "ì½Ķë¡ľëĤĺ": 3143,
      "íĳ¸": 3144,
      "ĠíķĺëĤĺëĭĺ": 3145,
      "Ġìķ±": 3146,
      "ĠêµŃìłķ": 3147,
      "Ġíķ´ìĦĿ": 3148,
      "ĠëģĬ": 3149,
      "ìłľëıĦ": 3150,
      "Ġë³¸ìĿ¸": 3151,
      "ĠìĤ¬ìĿ´íĬ¸": 3152,
      "ì¤¬": 3153,
      "Ġë¬´ëĭ¨ìłĦìŀ¬": 3154,
      "Ġíĳ¸": 3155,
      "Ġì¹¼": 3156,
      "Ġê¸°ìĤ¬": 3157,
      "ìľ¼ë©´ìĦľ": 3158,
      "ĠëĮĢì±ħ": 3159,
      "Ġë¹Ľ": 3160,
      "íĦ°ë¦¬": 3161,
      "Ġì§Ģì¼ľ": 3162,
      "ìĤ¬ìļ©": 3163,
      "Ġê°ĢëĬĶ": 3164,
      "íķĢ": 3165,
      "Ġë¬»": 3166,
      "ĠíĻķìŀ¥": 3167,
      "ì¯¤": 3168,
      "ĠìĪĺìŀħ": 3169,
      "Ġìĺ¤íŀĪëł¤": 3170,
      "ì¤Ģëĭ¤": 3171,
      "Ġìłķëĭ¹": 3172,
      "Ġíķĺëĭ¤": 3173,
      "Ġê·¸ëŀĺìĦľ": 3174,
      "ĠìłģìłĪ": 3175,
      "ĠìķĮëł¤ì¡Įëĭ¤": 3176,
      "ì¶¤": 3177,
      "ĠìĹĺ": 3178,
      "Ġìĸ´ëł¤ìĽĢ": 3179,
      "Ġìĺ¤ëŀĺ": 3180,
      "ì°¬ê°Ģì§Ģ": 3181,
      "íķĺëĭ¤ëĬĶ": 3182,
      "Ġê°ľëħĲ": 3183,
      "íķĺëĭ¤ê³ł": 3184,
      "Ġëģ¼": 3185,
      "ê»´": 3186,
      "ë°¥": 3187,
      "ë°©ìĨ¡": 3188,
      "ìĬ¤ì½Ķ": 3189,
      "ĠìĻ¸êµĲ": 3190,
      "Ġìļķ": 3191,
      "êµ¬ì¡°": 3192,
      "Ġê·¸ë¦¼": 3193,
      "ĠëĮĢì¤ĳ": 3194,
      "ĠìķĦë²Ħì§Ģ": 3195,
      "ë¦¬ìłģ": 3196,
      "ĠìŀĪì§Ģ": 3197,
      "Ġíĸ¥íĽĦ": 3198,
      "ĠëĤĺê°Ģ": 3199,
      "Ġì¡°íķ©": 3200,
      "Ġìłĳì´ī": 3201,
      "Ġë°ĺëıĦì²´": 3202,
      "ìħľ": 3203,
      "Ġë¹¼": 3204,
      "ë¥´ê¸°": 3205,
      "Ġë²Ķì£Ħ": 3206,
      "ĠìķĦë¦Ħ": 3207,
      "ĠìŀĪëĬĶì§Ģ": 3208,
      "130": 3209,
      "Ġë°ĽìķĦëĵ¤": 3210,
      "ĠìĤ¬íĥľ": 3211,
      "ĠíĪ¬ìŀħ": 3212,
      "Ġíĳľë©´": 3213,
      "Ġê·¸ëŁ¬ëĤĺ": 3214,
      "ê·¸ëŀĺ": 3215,
      "ìĨĮëĵĿ": 3216,
      "Ġë¬¼ì§Ī": 3217,
      "Ġì¡°ìłĪ": 3218,
      "Ġë§ĪìĿĦ": 3219,
      "Ġê¶Įë¦¬": 3220,
      "ĠìĿĺì§Ģ": 3221,
      "Ġë¹Ħìľ¨": 3222,
      "ĠìĤ¬ëĿ¼": 3223,
      "ê·¸ëłĩ": 3224,
      "ìĹĪê³ł": 3225,
      "Ġì°½ìĹħ": 3226,
      "ĠìĽĲíķĺëĬĶ": 3227,
      "Ġíļį": 3228,
      "ì½¤": 3229,
      "Ġê²½ê¸°ëıĦ": 3230,
      "ĠíķĻìĬµ": 3231,
      "Ġê´Ģëł¨íķ´": 3232,
      "íķĻìłģ": 3233,
      "Ġë³´ëĭĪ": 3234,
      "Ġê¸°íĮĲ": 3235,
      "Ġë¬´ë£Į": 3236,
      "Ġê±±ìłķ": 3237,
      "ì¡°ìłľ": 3238,
      "ĠìĿ¸íĦ°ë·°": 3239,
      "Ġìĥģíĺ¸": 3240,
      "ĠëĮĢìłĦ": 3241,
      "ìĸ´ì§Ħ": 3242,
      "ê¹ĮìļĶ": 3243,
      "ë°©ë²ķ": 3244,
      "ĠìŀĲì£¼": 3245,
      "Ġê³µë¶Ģ": 3246,
      "íĶĦíĬ¸ìĽ¨ìĸ´": 3247,
      "ê²łì§Ģë§Į": 3248,
      "ì»´": 3249,
      "ĠìĥĿëªħ": 3250,
      "Ġê·¼ë¡ľ": 3251,
      "Ġë°ľìĸ¸": 3252,
      "Ġì²ŃìĨĮëħĦ": 3253,
      "Ġê°Ĵ": 3254,
      "ĠìĽĲëĤ´": 3255,
      "ë´ĩ": 3256,
      "ê³µìĽĲ": 3257,
      "Ġê³µê¸°": 3258,
      "ĠìĮĵ": 3259,
      "ĠíĻķìłķ": 3260,
      "ìļĶìĿ¼": 3261,
      "Ġìĭľì²Ń": 3262,
      "ì§Ģê¸°": 3263,
      "Ġì£¼ë¡ľ": 3264,
      "ëĿ¼ë©´": 3265,
      "Ġê±´ì¶ķ": 3266,
      "Ġìŀ¬ë¯¸": 3267,
      "Ġìłķë¦¬": 3268,
      "êµŃìłľ": 3269,
      "Ġë½": 3270,
      "Ġì£¼ë¬¸": 3271,
      "ìĹħê³Ħ": 3272,
      "ĠëĲĺì§Ģ": 3273,
      "Ġë§Ĳíķľëĭ¤": 3274,
      "Ġê·¸ëĥ¥": 3275,
      "áħ²": 3276,
      "íĹĪë¸Į": 3277,
      "Ġê¸°ìĹ¬": 3278,
      "ê±´ìĦ¤": 3279,
      "ìĦ±ìŀ¥": 3280,
      "ì¥": 3281,
      "Ġìłģìĸ´ëıĦ": 3282,
      "Ġë¶Īêµ¬íķĺê³ł": 3283,
      "Ġë°ĶëĿ¼": 3284,
      "ĠëĤĺìĿ´": 3285,
      "ìŀĲëıĻ": 3286,
      "ĠìĿ¸ì¦Ŀ": 3287,
      "Ġì°¨ìĽĲ": 3288,
      "Ġëĵ¤ìĸ´ê°Ģ": 3289,
      "ĠìĪĺëĭ¨": 3290,
      "Ġë°ĺëĵľìĭľ": 3291,
      "Ġë³´ê¸°": 3292,
      "Ġ!": 3293,
      "Ġì´Īê¸°": 3294,
      "Ġì£¼ëıĦ": 3295,
      "Ġìľłë¦¬": 3296,
      "ĠÂ": 3297,
      "Ġì§Ģíķĺ": 3298,
      "ĠìĺĪì¸¡": 3299,
      "ëĭĪìķĦ": 3300,
      "ĠìĪł": 3301,
      "íĿ¡": 3302,
      "ĠìĹĨìĿĦ": 3303,
      "Ġìĺ¤ë¥¸": 3304,
      "ìŀĲì¹ĺ": 3305,
      "Ġë§Īì¼ĢíĮħ": 3306,
      "Ġê·¼ë¬´": 3307,
      "íĨ¡": 3308,
      "ìĹ¬ëªħ": 3309,
      "Ġëĭ¤ê°Ģ": 3310,
      "ê²ĢìĤ¬": 3311,
      "ëĿ¼ìļ°ëĵľ": 3312,
      "ĠìĥĿê°ģíķľëĭ¤": 3313,
      "ìłł": 3314,
      "Ġìļ°ìĬ¹": 3315,
      "ê°ĢìĬ¤": 3316,
      "ì¹¼": 3317,
      "ĠëıĦë¡ľ": 3318,
      "ĠëıĦë©´": 3319,
      "ë²ĦìĬ¤": 3320,
      "Ġë¶Īê³¼": 3321,
      "ë§Įëªħ": 3322,
      "ë¶ĢìĤ°": 3323,
      "37": 3324,
      "Ġìľłì¹ĺ": 3325,
      "ĠìĨĮìĭĿ": 3326,
      "ë°į": 3327,
      "ĠìĻĶ": 3328,
      "ìĿ¸íĦ°": 3329,
      "ĠìĨĮíĨµ": 3330,
      "ìĿ´ìĥģ": 3331,
      "Ġë¨¸ëĭĪ": 3332,
      "Ġê²ĥëĵ¤": 3333,
      "ëĤ¼": 3334,
      "ì§ĢìĤ¬": 3335,
      "ĠëıĻìĿĺ": 3336,
      "ê²¼ëĭ¤": 3337,
      "íĺĦëĮĢ": 3338,
      "âĨ": 3339,
      "Ġëħ¸ëŀĺ": 3340,
      "Ġì¶ľëł¥": 3341,
      "Ġëª¨ë¥´": 3342,
      "ĠìĿ´ëŀĢ": 3343,
      "ëĭĮ": 3344,
      "Ġë§Īì°¬ê°Ģì§Ģ": 3345,
      "Ġëª»íĸĪëĭ¤": 3346,
      "ĠëħĦ": 3347,
      "Ġì§Ģêµ¬": 3348,
      "ĠìħĢ": 3349,
      "ĠíĥĿ": 3350,
      "Ġê¼½": 3351,
      "ĠìĤ¬ìĥģ": 3352,
      "ĠìłĦë°ĺ": 3353,
      "ìĬ¤íĶĮëłĪìĿ´": 3354,
      "Ġíķľìłķ": 3355,
      "Ġìĺ®": 3356,
      "íĶĦëĿ¼": 3357,
      "38": 3358,
      "Ġìĭ¬ê°ģ": 3359,
      "ìķŀìĦľ": 3360,
      "ĠëĤ®ìĿĢ": 3361,
      "Ġì¢ĭëĭ¤": 3362,
      "ĠìĿ¸ê³µ": 3363,
      "Ġìĭłê²½": 3364,
      "ì§ĢëĤľíķ´": 3365,
      "íķ´ëıĦ": 3366,
      "ìĺĢëįĺ": 3367,
      "Ġê³µê°Ĳ": 3368,
      "âĶĥ": 3369,
      "ĠìĦłë°ľ": 3370,
      "Ġë¬´ëĮĢ": 3371,
      "Ġìĭ¤íĮ¨": 3372,
      "ĠìĿ¼ìľ¼": 3373,
      "ëį°ìĿ´íĦ°": 3374,
      "ëĳĺ": 3375,
      "ë´Ĳ": 3376,
      "Ġë³´ìĺĢëĭ¤": 3377,
      "ĠëĤ¨ë¶ģ": 3378,
      "íķĺìĦ¸ìļĶ": 3379,
      "ê´Ģê´ĳ": 3380,
      "íĴĢ": 3381,
      "ëģĶ": 3382,
      "ë¬¼ë¡ł": 3383,
      "Ġê³¡": 3384,
      "ëĤ´ê³ł": 3385,
      "ìĦ°ëĭ¤": 3386,
      "ìĤ¼ìĦ±": 3387,
      "ì§ĵ": 3388,
      "Ġìĸ´ë¦°ìĿ´": 3389,
      "Ġì¢ħë¥ĺ": 3390,
      "Ġíı¬íķ¨íķł": 3391,
      "ĠíĽĪëł¨": 3392,
      "ìĦľê´Ģ": 3393,
      "ĠëĭĪ": 3394,
      "ĠìĿ¸êµ¬": 3395,
      "ĠìĻĦìĦ±": 3396,
      "Ġìŀ¥ìĨĮ": 3397,
      "ëĿ¼ìĬ¤": 3398,
      "Ġìĭ¤íĸī": 3399,
      "ĠëĤ¨ìķĦ": 3400,
      "Ġë¨¸ë¦¬": 3401,
      "Ġìĭľê°ģ": 3402,
      "Ġë°ĺë³µ": 3403,
      "ê´Ħ": 3404,
      "íĸīìľĦ": 3405,
      "ê³Ħìķ½": 3406,
      "Ġíı¬íķ¨íķľëĭ¤": 3407,
      "Ġìŀ¬ìłķ": 3408,
      "Ġíı´ë¦¬": 3409,
      "íļĮëĭ´": 3410,
      "Ġêµ¬ëıĻ": 3411,
      "Ġê·¼ê±°": 3412,
      "197": 3413,
      "Ġì¦Ŀìĥģ": 3414,
      "Ġì£¼ìŀ¥íĸĪëĭ¤": 3415,
      "ëĭ¤ìļ´": 3416,
      "ìĹĪìĬµëĭĪëĭ¤": 3417,
      "600": 3418,
      "Ġê³Ħê¸°": 3419,
      "Ġì§Ħëĭ¨": 3420,
      "Ġì§ĢìłģíĸĪëĭ¤": 3421,
      "ìķĺëįĺ": 3422,
      "ĠìĹĨê³ł": 3423,
      "Ġê°Īëĵ±": 3424,
      "Ġíľ´ëĮĢ": 3425,
      "íĢ": 3426,
      "ĠìĬµ": 3427,
      "ĠëĤĺìĻĶëĭ¤": 3428,
      "Ġìŀĳìļ©": 3429,
      "ĠìĦľìļ¸ìĭľ": 3430,
      "ĠìĦłë¬¼": 3431,
      "ìĽħ": 3432,
      "Ġë¶Ģë¬¸": 3433,
      "Ġë³ĦëıĦ": 3434,
      "ĠìĹĨëĭ¤ëĬĶ": 3435,
      "ĠìŀĲìĽĲ": 3436,
      "Įë¦¬": 3437,
      "ì¾": 3438,
      "Ġíĺĳìĥģ": 3439,
      "ĠìĭľìłĲ": 3440,
      "Ġìŀĩ": 3441,
      "ë°ĺëıĦ": 3442,
      "Ġêµ¬ìĨį": 3443,
      "Ġë¯¸ë¦¬": 3444,
      "ĠëĤĺìĺ¨ëĭ¤": 3445,
      "ìĭľëĮĢ": 3446,
      "ê¸°ê¸°": 3447,
      "íŀĺ": 3448,
      "ìĽłëĭ¤": 3449,
      "ĠìĪĺì§ĳ": 3450,
      "Ġì§ĳëĭ¨": 3451,
      "ĠìĹħê³Ħ": 3452,
      "ĠëĵľëĿ¼ë§Ī": 3453,
      "ĠíĺĳìĿĺ": 3454,
      "ĠìķĪëĤ´": 3455,
      "íĺĦì§Ģ": 3456,
      "įìłķ": 3457,
      "ëĮĢì±ħ": 3458,
      "Ġë²¤": 3459,
      "ìĹĨëĬĶ": 3460,
      "ĠíķľêµŃìĸ¸ë¡ł": 3461,
      "Ġì²´ê³Ħ": 3462,
      "ĠíķłìĿ¸": 3463,
      "Ġëķħ": 3464,
      "ĠëłĪìĿ´": 3465,
      "Ġê°ĢìĬ¤": 3466,
      "ĠëĤĺìķĦ": 3467,
      "ê°ľìĿ¸": 3468,
      "Ġì¶©ë¶ĦíŀĪ": 3469,
      "ĠíĹĪìļ©": 3470,
      "ìĬ¤ëŁ¬ìļ´": 3471,
      "ê³µê°Ħ": 3472,
      "Ġì½ľ": 3473,
      "Ġëĭ¨ì§Ģ": 3474,
      "ĠëĮ": 3475,
      "íķĺìĹ¬ìķ¼": 3476,
      "ìĹ°êµ¬ìĽĲ": 3477,
      "Ġë§Īë¬´ë¦¬": 3478,
      "ë¹Ļ": 3479,
      "Ġë°°ê²½": 3480,
      "ìģĺ": 3481,
      "Ġíı¬íķ¨íķľ": 3482,
      "¨ìĶ¬": 3483,
      "íĥĢìŀĦ": 3484,
      "ĠëıĻë¬¼": 3485,
      "ê°ĻìĿ´": 3486,
      "ĠìľłíĨµ": 3487,
      "Ġìķ½ìĨį": 3488,
      "ĠìĭľìŀĳíĸĪëĭ¤": 3489,
      "ë³´ëĭĪ": 3490,
      "Ġê½ĥ": 3491,
      "ĠìŀĲê¸Ī": 3492,
      "ĠìĿ¼ìĸ´ëĤĺ": 3493,
      "Ġëī´ìĬ¤íĹĪë¸Į": 3494,
      "Ġìĥģëĭ´": 3495,
      "ëľ¨": 3496,
      "ĠíĺľíĥĿ": 3497,
      "Ġê±°ë¶Ģ": 3498,
      "ì¦ĪëĭĪìĬ¤": 3499,
      "Ġë¹Ħë¡¯íķ´": 3500,
      "ĠëĳĺëŁ¬": 3501,
      "Ġâĺŀ": 3502,
      "ìĺĪìĪł": 3503,
      "ë°ĽìĿĢ": 3504,
      "Ġì¤ĳìĨĮê¸°ìĹħ": 3505,
      "ĠìĹĦì²Ń": 3506,
      "ê¸°êµ¬": 3507,
      "Ġë¶Ħìĸĳ": 3508,
      "ëĨĢ": 3509,
      "Ġì·¨ìĹħ": 3510,
      "ë¯¼ì£¼": 3511,
      "ĠìĨĮìľł": 3512,
      "ìĿ¼ë³´": 3513,
      "ĠêµĲíļĮ": 3514,
      "Ġëļ": 3515,
      "Ġì§ĢìĨįìłģ": 3516,
      "ìĬ¤íı¬ì¸ł": 3517,
      "ìŀ¥ìķł": 3518,
      "ĠëĤĺìĻĢ": 3519,
      "ĠìĬ¤íı¬ì¸ł": 3520,
      "ĠìķŀëĳĲê³ł": 3521,
      "Ġê¸°ìĹħëĵ¤": 3522,
      "ĠìĿ¸ê·¼": 3523,
      "ĠíĽ¨ìĶ¬": 3524,
      "Ġì°¨ë¡Ģ": 3525,
      "ìĿ´ëĿ¼ë©´": 3526,
      "ëĳĶ": 3527,
      "Ġëĵł": 3528,
      "ê°Ģêµ¬": 3529,
      "Ġë³´ìĪĺ": 3530,
      "ĠíķŃê³µ": 3531,
      "ì¤ĺ": 3532,
      "Ġì°¨ë³Ħ": 3533,
      "ĠìĦłê³ł": 3534,
      "ëĤĺë¬´": 3535,
      "ĠëĲĲ": 3536,
      "ĠëĤ¨íİ¸": 3537,
      "ë¨¼íĬ¸": 3538,
      "ë¡±": 3539,
      "ìŀĲìĽĲ": 3540,
      "ì§Ģêµ¬": 3541,
      "ĠíĿĲë¦Ħ": 3542,
      "ĠëĿ¼ìĿ¸": 3543,
      "ë³´ê¸°": 3544,
      "ëł¤ëĬĶ": 3545,
      "Ġê·¸ëıĻìķĪ": 3546,
      "ìĤ¬ìĿ¼": 3547,
      "Ġê²ĥìĿ´ëĿ¼ëĬĶ": 3548,
      "ì¦Ŀê¶Į": 3549,
      "Ġëª¨ëĵĪ": 3550,
      "ĠëĬĲê»´": 3551,
      "ĠìĨĮíĶĦíĬ¸ìĽ¨ìĸ´": 3552,
      "ĠìĤ¬ëĬĶ": 3553,
      "ë¬´ë¶Ģ": 3554,
      "ê²°ê³¼": 3555,
      "ĠìĽĲì¹Ļ": 3556,
      "ë¬¼ì§Ī": 3557,
      "ĠíĿĺ": 3558,
      "ìķĦìķ¼": 3559,
      "Ġëĭ¤ë¥´": 3560,
      "Ġëª»íķĺëĬĶ": 3561,
      "ëĭī": 3562,
      "ê°Ŀëĵ¤": 3563,
      "Ġë¶Īíİ¸": 3564,
      "ĠíĮĲê²°": 3565,
      "ë¡ľëĵľ": 3566,
      "Ġì¤ĳê°Ħ": 3567,
      "Ġê°Ħëĭ¨": 3568,
      "ìĭľíĤ¤ê³ł": 3569,
      "ëŀĢëĭ¤": 3570,
      "ë¶ģíķľ": 3571,
      "Ġë¹Ħë¡¯íķľ": 3572,
      "ĠìµľìĦł": 3573,
      "ì°®": 3574,
      "ĠìľĦíĺĳ": 3575,
      "ìĨįëıĦ": 3576,
      "ĠìĿ¸ìĥĿ": 3577,
      "Ġë¬´ê¸°": 3578,
      "ĠìĻ¸êµŃìĿ¸": 3579,
      "Ġë§ŀëĬĶ": 3580,
      "ëįĶëĿ¼": 3581,
      "íĺĳëł¥": 3582,
      "ĠíĶ¼íķ´ìŀĲ": 3583,
      "ĠëĬ¦": 3584,
      "Ġíķĺë©´ìĦľ": 3585,
      "ìŀ¬ëĭ¨": 3586,
      "ìĦ¸ìĬ¤": 3587,
      "ì¹´ìĺ¤": 3588,
      "ìĭ¤ìłľ": 3589,
      "ĠíĮ¨íĦ´": 3590,
      "ĠìłĦê·¹": 3591,
      "Ġì£¼ê³ł": 3592,
      "ĠìĦľë²Ħ": 3593,
      "Ġíķľíİ¸": 3594,
      "Ġë°ľìĥĿíķľ": 3595,
      "ĠíķŃìĥģ": 3596,
      "íĭ°ë¸Į": 3597,
      "ĠìŀĪìĹĪëįĺ": 3598,
      "Ġê¸ĪìĨį": 3599,
      "ì¡°ìĦł": 3600,
      "Ġë¶ĢìĹ¬": 3601,
      "Ġìķī": 3602,
      "Ġìĺ¥": 3603,
      "Ġë°ĿíĺĢ": 3604,
      "ĠìĨĮëĵĿ": 3605,
      "ìľ¼ë¯Ģë¡ľ": 3606,
      "ĠìłĬìĿĢ": 3607,
      "Ġëįĺ": 3608,
      "Ġê¾¸ì¤Ģ": 3609,
      "Ġë³Ģíĺ¸ìĤ¬": 3610,
      "Ġì²Ńêµ¬": 3611,
      "Ġê¸°ìŀ¬": 3612,
      "íķľëĭ¤ë©´": 3613,
      "ëĪĦë¦¬": 3614,
      "Ġê¸įìłķ": 3615,
      "áĦĴáĦĴ": 3616,
      "íı¬ìĿ¸íĬ¸": 3617,
      "ĠëĤĺìĺ¤ëĬĶ": 3618,
      "ì¡°íķ©": 3619,
      "ë§ŀ": 3620,
      "ì¾Į": 3621,
      "ĠìŀĳëıĻ": 3622,
      "ĠëĸłëĤĺ": 3623,
      "ĠëĶ°ëĿ¼ìĦľ": 3624,
      "ìĬ´": 3625,
      "ë¡ľê·¸": 3626,
      "ĠĠĠĠĠĠĠĠ": 3627,
      "ìĭĿíĴĪ": 3628,
      "Ģëĵľ": 3629,
      "Ġìĭ±": 3630,
      "ĠëĤĺíĥĢëĤ¸": 3631,
      "Ġê¸°íĥĢ": 3632,
      "âĢľ": 3633,
      "ì§Ģë©´ìĦľ": 3634,
      "ìĿ´ìĿµ": 3635,
      "Ġì¶Ķìłķ": 3636,
      "ê³µíķŃ": 3637,
      "ìļ¸ëŁ¬": 3638,
      "ãģ": 3639,
      "Ġëª¨ìĸĳ": 3640,
      "Ġì±Ħìļ©": 3641,
      "Ġê³µìĤ¬": 3642,
      "55": 3643,
      "ë°ľëªħ": 3644,
      "ëħķ": 3645,
      "Ġê²½ìŁģëł¥": 3646,
      "Ġê°ķìĽĲ": 3647,
      "Ġì¹´ë©ĶëĿ¼": 3648,
      "ĠìŀĲë³¸": 3649,
      "Ġì§ĢíĤ¤": 3650,
      "Ġìĥģë¶Ģ": 3651,
      "ë¹Ľ": 3652,
      "ìģľ": 3653,
      "Ġë¹Ħì¤ĳ": 3654,
      "Ġëŀĳ": 3655,
      "ë¶Ģìŀ¬": 3656,
      "ĠíĻĶìŀ¥": 3657,
      "ðŁ": 3658,
      "ĠìŀĪëĭ¤ë©´": 3659,
      "íĬ¹ë³Ħ": 3660,
      "ê°Ĳëıħ": 3661,
      "ĠìĻĦìłĦíŀĪ": 3662,
      "ìĭľì¼": 3663,
      "ìłĦíĻĶë²Īíĺ¸": 3664,
      "Ġìĭ¬ìĤ¬": 3665,
      "íĪ¬ëį°ìĿ´": 3666,
      "Ġì§ģìŀ¥": 3667,
      "Ġì§Ħì§ľ": 3668,
      "Ġìį¨": 3669,
      "ëįĶëĭĪ": 3670,
      "ĠíĪ¬íĳľ": 3671,
      "Ġìŀ¬ë£Į": 3672,
      "Ġìĭ¶ëĭ¤": 3673,
      "ĠíĥĢìĿ´": 3674,
      "Ġë§¤ëł¥": 3675,
      "ìĿ´ëĦĪ": 3676,
      "ĠëıĻìĿ¼íķľ": 3677,
      "ĠìľłìĤ¬": 3678,
      "Ġìĭ¤íĹĺ": 3679,
      "Ġìłģê·¹ìłģ": 3680,
      "ĠìĹ¬ë¦Ħ": 3681,
      "Ġêµ°ìĤ¬": 3682,
      "ĠìĿ´ìļ©íķľ": 3683,
      "ì²Ńìŀ¥": 3684,
      "ĠìĹ°ê³Ħ": 3685,
      "ì°Į": 3686,
      "Ġìľłê¸°": 3687,
      "Ġì¶ķêµ¬": 3688,
      "ì§ĢëĬ¥": 3689,
      "ĠìĦłìĪĺëĵ¤": 3690,
      "ì§Ģê²Į": 3691,
      "ĠëĤĺëĪĦ": 3692,
      "Ġê³µë¬´ìĽĲ": 3693,
      "Ġëľ¨": 3694,
      "ĠíķĦìĪĺ": 3695,
      "ì¡°ìłķ": 3696,
      "ê¸°ê³ł": 3697,
      "ê°Ģì¡±": 3698,
      "ĠìĽ¨": 3699,
      "ë£¨ìħĺ": 3700,
      "ëĭ¹ìĭľ": 3701,
      "ìŀĶ": 3702,
      "ĠìĿ´ìļ©ìŀĲ": 3703,
      "ëĬĶëį°ìļĶ": 3704,
      "ê±´ê°ķ": 3705,
      "ĠìłĳìĨį": 3706,
      "Ġëĭ¹ìĹ°": 3707,
      "ì£¼ê¸°": 3708,
      "ĠìĻĦë£Į": 3709,
      "ĠìĦ¼ìĦľ": 3710,
      "ëľ»": 3711,
      "Ġìĭ¤ìłľë¡ľ": 3712,
      "Ġìĺģìĸ´": 3713,
      "ëª¨ë¦¬": 3714,
      "ë¨¸ì§Ģ": 3715,
      "Ġìĸ¸ìĸ´": 3716,
      "Ġë¹łë¥´ê²Į": 3717,
      "ë®¤ëĭĪ": 3718,
      "ìŀĲëıĻì°¨": 3719,
      "44": 3720,
      "Ġìŀ¬ë°°íı¬": 3721,
      "ĠìłĦìļ©": 3722,
      "Ġìłľê³µíķľëĭ¤": 3723,
      "Ġê¸°ë¡ĿíĸĪëĭ¤": 3724,
      "Ġë§ŀì¶°": 3725,
      "Ġì£¼ìĿ¸ê³µ": 3726,
      "íķŃê³µ": 3727,
      "ë©ĺ": 3728,
      "Ġíĺ¸íħĶ": 3729,
      "ĺĳ": 3730,
      "Ġì¢ħêµĲ": 3731,
      "ĠëĤ´ëĨĵ": 3732,
      "ĠìĺĨ": 3733,
      "ëĲ¨": 3734,
      "Ġë§¤ìŀ¥": 3735,
      "íķĻëħĦ": 3736,
      "ĠìĿ´ìĿµ": 3737,
      "ĠíĶĦëłĪìŀĦ": 3738,
      "39": 3739,
      "ĠìĹ¬ëŁ¬ë¶Ħ": 3740,
      "Ġì½ĶìĬ¤": 3741,
      "ê²½ìĺģ": 3742,
      "Ġìŀ¥ìłĲ": 3743,
      "ĠìŀĲê²©": 3744,
      "ĠìĿ¼ëĭ¨": 3745,
      "Ġë¹ħ": 3746,
      "ë¥Ļ": 3747,
      "ĠìĦ±ëĬ¥": 3748,
      "Ġì°½ì¶ľ": 3749,
      "Ġêµ¬ì²´ìłģìĿ¸": 3750,
      "ë¦¬ìĺ¤": 3751,
      "ĠíĻķìĭ¤": 3752,
      "Ġì§§": 3753,
      "ê¸°ì¤Ģ": 3754,
      "ĠëĤĺìĦł": 3755,
      "ĠìĦłìĸ¸": 3756,
      "ìĦ¸ìĦľ": 3757,
      "ëĮ": 3758,
      "Ġë³´ê±´": 3759,
      "Ġìłķê¶Į": 3760,
      "ĠíĨµíķ´ìĦľ": 3761,
      "Â°": 3762,
      "íķ´ì§Ħ": 3763,
      "Ġë³µì§Ģ": 3764,
      "ĠëĮĢë³Ģ": 3765,
      "Ġê±¸ì³Ĳ": 3766,
      "Ġëĭ¹ìĦł": 3767,
      "ĠíĻķìĿ¸íķł": 3768,
      "ë°Ķë¡ľ": 3769,
      "Ġë¶Ģìŀ¬": 3770,
      "ìķ¤": 3771,
      "ĠìķĦì¹¨": 3772,
      "Ġëħ¸ì¶ľ": 3773,
      "ĠìłĲê²Ģ": 3774,
      "ĠìĽĶëĵľ": 3775,
      "ë§ĪìĿĦ": 3776,
      "Ġì°¨ëĭ¨": 3777,
      "ìĤ¬ìŀĲ": 3778,
      "êµŃëĤ´": 3779,
      "Ġì¡¸ìĹħ": 3780,
      "ìĦ¬": 3781,
      "ê½ĥ": 3782,
      "Ġê²¸": 3783,
      "ĠìķĦëıĻ": 3784,
      "ĠìĿ¸ìĪĺ": 3785,
      "ĠìľłìĿ¼": 3786,
      "Ġì»¬": 3787,
      "ëĳ¥": 3788,
      "ĠíĭĢ": 3789,
      "ì²¨": 3790,
      "ĠìĿ¸ëł¥": 3791,
      "Ġíİ¸ìĿĺ": 3792,
      "ĠìĦ±ìłģ": 3793,
      "ë²ķìĿ¸": 3794,
      "Ġìĵ´": 3795,
      "ĠìĿ´íĥĪ": 3796,
      "íĸīìłķ": 3797,
      "Ġê³µìŀ¥": 3798,
      "ìĤ¬ìĿ´íĬ¸": 3799,
      "ìĿ´ìłľ": 3800,
      "Ġê´": 3801,
      "ĠíĨ": 3802,
      "ìĿ´ìĬ¤ë¶ģ": 3803,
      "ê¸Īë¦¬": 3804,
      "ĠìĥģìĦ¸": 3805,
      "ĠìĪĺë¦½": 3806,
      "ìŀĲë£Į": 3807,
      "ê²Ĳ": 3808,
      "ĠìĦ±ë¶Ħ": 3809,
      "ìĭľëĬĶ": 3810,
      "Ġìĺ¤íĶĪ": 3811,
      "ĠìĿ¸ê¶Į": 3812,
      "Ġì£¼ë¯¼ëĵ¤": 3813,
      "ĠìķĦíĶĦ": 3814,
      "Ġë¯¸ëĶĶìĸ´": 3815,
      "Ġê°Ŀ": 3816,
      "Ġíĺķìĥģ": 3817,
      "Ġíķĺê²Į": 3818,
      "ĠíķĺìĿ´": 3819,
      "Ġìĭľë¯¼ëĵ¤": 3820,
      "ìĤ¬íķŃ": 3821,
      "ĠìķĦë§Ī": 3822,
      "Ġê»ĺìĦľ": 3823,
      "65": 3824,
      "196": 3825,
      "ĠêµŃë°©": 3826,
      "ĠëĴ·": 3827,
      "Ġíľĺ": 3828,
      "êµ¬ìļĶ": 3829,
      "Ġìĭľë¦¬ì¦Ī": 3830,
      "ìĿ´ê²ĥ": 3831,
      "Ġíķ´ìĨĮ": 3832,
      "ĠìłĦìĽĲ": 3833,
      "ĠìĪĺìĹħ": 3834,
      "Ġê´´": 3835,
      "Ġìļ¸ìĤ°": 3836,
      "ĠãĢİ": 3837,
      "ëĲĺëıĦë¡Ŀ": 3838,
      "Ġê°ķíķľ": 3839,
      "ĠëĨĵê³ł": 3840,
      "ĠíĻĶë©´": 3841,
      "ì¡°ê±´": 3842,
      "âĶ¼": 3843,
      "ĠìĿĳëĭµ": 3844,
      "ê°Ģê²©": 3845,
      "ĠíĬ¹íĹĪ": 3846,
      "ìĹ¬íĸī": 3847,
      "ìĬ¤íħĮ": 3848,
      "Ġì¼ĢìĿ´": 3849,
      "Ġê·¹ë³µ": 3850,
      "Ġìĭłìļ©": 3851,
      "ĠíĬ¹ìĪĺ": 3852,
      "ĠëĳĶ": 3853,
      "Ġêµ¬ë¶Ħ": 3854,
      "ĠìĽĲëĤ´ëĮĢíĳľ": 3855,
      "ĠìĦ±ê²©": 3856,
      "48": 3857,
      "ĠìĹŃëŁī": 3858,
      "ì²´ìľ¡": 3859,
      "ĠìĪĺìĪł": 3860,
      "Ġì»¤íĶ¼": 3861,
      "ĠëĨĴìĿ´": 3862,
      "íĬ¸ëĤ¨": 3863,
      "ĠÂ©": 3864,
      "ĠìĤ¬ìĭ¤ìĥģ": 3865,
      "Ġëĭ¨ìľĦ": 3866,
      "Ġìĵ¸": 3867,
      "ĠëĶĶìĬ¤íĶĮëłĪìĿ´": 3868,
      "ìĽ¨ìĿ´": 3869,
      "ê·¼íĺľ": 3870,
      "ĠëĬĺìĸ´": 3871,
      "ĠìĪĺìłķ": 3872,
      "ĠìĤŃ": 3873,
      "íħį": 3874,
      "Ġì¡°ì°¨": 3875,
      "Ġë§¤ìĿ¼": 3876,
      "ì³¤": 3877,
      "Ġì¡°ë¡Ģ": 3878,
      "Ġíĺ¼ìŀĲ": 3879,
      "Ġìłķì¹ĺìłģ": 3880,
      "Ġë¹Ħì¦ĪëĭĪìĬ¤": 3881,
      "ĠìĤ½": 3882,
      "ĠìłĦëħĦ": 3883,
      "ĠëıĦì°©": 3884,
      "Ġê²¨ìļ¸": 3885,
      "Ġì£Ħ": 3886,
      "ìĦ¯": 3887,
      "Ġë¨¹ê³ł": 3888,
      "ìĹ°íķ©ëī´ìĬ¤": 3889,
      "Ġì¶ľë°ľ": 3890,
      "Ġê°Ģìĥģ": 3891,
      "Ġë°Ľìķĺ": 3892,
      "Ġë²½": 3893,
      "ì²´ê³Ħ": 3894,
      "ĠìłĦëĤł": 3895,
      "ëŀĲ": 3896,
      "800": 3897,
      "Ġë³´ìĥģ": 3898,
      "ëħģ": 3899,
      "ë¶Ģëª¨": 3900,
      "âĹĩ": 3901,
      "Ġì¹´íİĺ": 3902,
      "ĠíĥĢê³ł": 3903,
      "ê²Ģì°°": 3904,
      "ĠìıŁ": 3905,
      "ëĤĻ": 3906,
      "ë°ĺë©´": 3907,
      "----": 3908,
      "42": 3909,
      "ìĤ°ë¬¼": 3910,
      "Ġìŀ¥ë¹Ħ": 3911,
      "Ġë¶Ģìĥģ": 3912,
      "ĠëĲĺê¸°": 3913,
      "ì£½": 3914,
      "ĠíĨłë¡ł": 3915,
      "ìĿ´ëłĩê²Į": 3916,
      "Ġë§º": 3917,
      "Ġì¦Ŀê±°": 3918,
      "ĠìĻĦíĻĶ": 3919,
      "ìĬ¤ëŁ½ê²Į": 3920,
      "Ġê¸Īë¦¬": 3921,
      "íķĺëĿ¼": 3922,
      "ĠìĬ¤ìľĦ": 3923,
      "Ġë²ķìĽĲ": 3924,
      "Ġë¬¸ìŀ¬ìĿ¸": 3925,
      "ê°Ģëĵ¤": 3926,
      "ìŀĲì²´": 3927,
      "ĠìĭĿíĴĪ": 3928,
      "ë±": 3929,
      "!!Ċ": 3930,
      "Ġë¶Īê°ĢëĬ¥": 3931,
      "īìŀ¥": 3932,
      "ĠìŀĲëħĢ": 3933,
      "ìĿ´ë¯¸": 3934,
      "Ġìĭ¤ìłģ": 3935,
      "íİľ": 3936,
      "75": 3937,
      "Ġê±°ì£¼": 3938,
      "ĠìĬ¤íĥĢìĿ¼": 3939,
      "Ġê²½ëĤ¨": 3940,
      "Ġìľ¡ìĦ±": 3941,
      "ìĿĺë£Į": 3942,
      "ĠíĿĳ": 3943,
      "íĸīìĤ¬": 3944,
      "Ġë§İìķĦ": 3945,
      "01": 3946,
      "Ġìĭ¤íĺĦ": 3947,
      "ĠìĦŃ": 3948,
      "Ġë³´ì¡°": 3949,
      "ìĭłë¬¸": 3950,
      "ê±°ìļ´": 3951,
      "ëĭ¤ìĭľ": 3952,
      "ĠíĹĮë²ķ": 3953,
      "ĠìĤ¼ìĦ±ìłĦìŀĲ": 3954,
      "ĠìħĪ": 3955,
      "ë§Įíģ¼": 3956,
      "Ġëıķ": 3957,
      "ĠìķĬëıĦë¡Ŀ": 3958,
      "¤ë²Ħ": 3959,
      "Ġë§¤ëħĦ": 3960,
      "Ġìĭ¤ì§Ī": 3961,
      "Ġê³łíĨµ": 3962,
      "ìĿ´ìĹĪëįĺ": 3963,
      "ĠìķĬìľ¼ë©´": 3964,
      "Ġíķľê³Ħ": 3965,
      "ĠìĿ´ê³³": 3966,
      "Ġì°¸ê³ł": 3967,
      "Ġë°ĺë©´": 3968,
      "ĠíĨµíĻĶ": 3969,
      "ĠíĨµìĿ¼": 3970,
      "ĠìłĦë§ĿìĿ´ëĭ¤": 3971,
      "ĠìĿ´ëĤ´": 3972,
      "ë°ĽëĬĶ": 3973,
      "ìĿ¼ë°ĺ": 3974,
      "Ġë°Ķê¾¸": 3975,
      "ìĹ°êµ¬ìĨĮ": 3976,
      "Ġë¬´ìĦł": 3977,
      "ë¦¬ì¼ĢìĿ´ìħĺ": 3978,
      "íĶ¼ìĬ¤": 3979,
      "ìĥģíĴĪ": 3980,
      "Ġì´īêµ¬": 3981,
      "Ġìŀ¬ìĤ°": 3982,
      "íĹ¤": 3983,
      "ĠìĹ¬ë¡ł": 3984,
      "Ġì¸µ": 3985,
      "Ġë°Ķê¿": 3986,
      "140": 3987,
      "ë°Ľê³ł": 3988,
      "ĠíĸĪëįĺ": 3989,
      "ìĸ´ëĸ": 3990,
      "Ġì¶©ê²©": 3991,
      "ìĿ´ìĤ¬": 3992,
      "íĺģëªħ": 3993,
      "ĠìłĦë©´": 3994,
      "ĠíĽĦë³´ìŀĲ": 3995,
      "Ġíİ¼ì³Ĳ": 3996,
      "ëł¤ë©´": 3997,
      "Ġë¶ĪëŁ¬": 3998,
      "íĮĶ": 3999,
      "Ġê¸Īìķ¡": 4000,
      "ìŀ¥ê´Ģ": 4001,
      "Ġê°ľíĺģ": 4002,
      "Ġê¶ģê¸Ī": 4003,
      "ĠíĶ¼ê³ł": 4004,
      "Ġíĥľìĸĳ": 4005,
      "ĠíĬ¹ë³Ħíķľ": 4006,
      "ĠìľĦì¹ĺíķľ": 4007,
      "Ġë§ĪìĬ¤íģ¬": 4008,
      "Ġë¨¸ëĭĪíĪ¬ëį°ìĿ´": 4009,
      "ëĤĺìļĶ": 4010,
      "ëŃ": 4011,
      "ĠìĹĲìĸ´": 4012,
      "Ġê²ģ": 4013,
      "ĠìĹĨëĭ¤ê³ł": 4014,
      "700": 4015,
      "Ġêµ¬ìŀħ": 4016,
      "Ġê¸°ê³Ħ": 4017,
      "Ġì£¼ì°¨": 4018,
      "Ġë¹ĦìĬ·íķľ": 4019,
      "ĠìĹĨìĬµëĭĪëĭ¤": 4020,
      "ëĭ¹íķľ": 4021,
      "ĠìĿĺíķĺìĹ¬": 4022,
      "íģĲ": 4023,
      "ì´Ŀë¦¬": 4024,
      "ĠëģĿëĤĺ": 4025,
      "ĠìľłëıĦ": 4026,
      "ìļ°ëĬĶ": 4027,
      "ì¡°ìĽĲ": 4028,
      "Ġë§ŀìķĦ": 4029,
      "ìķĦìĭľìķĦ": 4030,
      "Ġì§ĳíĸī": 4031,
      "ĠìŀĦëĮĢ": 4032,
      "ĠìĦ¸íı¬": 4033,
      "ëħ¼": 4034,
      "Ġê·¸ëŁ°ëį°": 4035,
      "ĠìĸĳìĦ±": 4036,
      "ëĵŃ": 4037,
      "ìĿ´ë©ĶìĿ¼": 4038,
      "Ġíı¬ê¸°": 4039,
      "Ġê²Ģì¶ľ": 4040,
      "ĠìĦ¸ëĮĢ": 4041,
      "ĠìłĪëĮĢ": 4042,
      "Ġë²Ĺìĸ´ëĤĺ": 4043,
      "ĠíĮĮìĿ¼": 4044,
      "Ġì§Ģìĭľ": 4045,
      "íķĺìĿ´": 4046,
      "ë¦ī": 4047,
      "Ġìļ°ì£¼": 4048,
      "ĠíĴĪì§Ī": 4049,
      "ìŀĲê¸Ī": 4050,
      "ìĹĲëĦĪì§Ģ": 4051,
      "ĠìŀĲìĤ°": 4052,
      "ê°Ħëĭ¤": 4053,
      "Ġë¹Ħë°Ģ": 4054,
      "ìļ°ìĦł": 4055,
      "íĬľë¸Į": 4056,
      "ìĹĪëĬĶëį°": 4057,
      "Ġìĺ·": 4058,
      "ĠìĥĿê°ģíķ´": 4059,
      "ìĿ´ëķĮ": 4060,
      "Ġíģ´ëĿ¼ìļ°ëĵľ": 4061,
      "ìĭľíĹĺ": 4062,
      "ĠíĨµíķĺìĹ¬": 4063,
      "ë¦¬íĬ¸": 4064,
      "Ġìĸ´ë¨¸ëĭĪ": 4065,
      "Ġë®¤": 4066,
      "Ġë¹Ħìĥģ": 4067,
      "41": 4068,
      "ë°ĶìĿ´ìĬ¤": 4069,
      "Ġë½ĳ": 4070,
      "ĠêµĲì²´": 4071,
      "Ġë°ĶëŀĢëĭ¤": 4072,
      "ëĮĢìłĦ": 4073,
      "ëĮĢêµ¬": 4074,
      "Ġë©Ķëī´": 4075,
      "ĠìĨĮìĨ¡": 4076,
      "ĠíļįëĵĿ": 4077,
      "ĠìĦłìĥĿ": 4078,
      "ëĮĢì¶ľ": 4079,
      "Ġíķĺë¶Ģ": 4080,
      "Ġìłģíķ©": 4081,
      "ĠêµŃë¦½": 4082,
      "íķĺê²łëĭ¤ëĬĶ": 4083,
      "ë¦½ëĭĪëĭ¤": 4084,
      "Ġëĭ¤ìĿ´": 4085,
      "Ġê³ĦìĤ°": 4086,
      "ëĴ": 4087,
      "ĠìŀĪìĸ´ìļĶ": 4088,
      "ìĦłìĪĺ": 4089,
      "Ġê°ķëĤ¨": 4090,
      "ê³łê¸°": 4091,
      "ĠìķĬìĬµëĭĪëĭ¤": 4092,
      "05": 4093,
      "ĠìĿĺìĭ¬": 4094,
      "Ġë²ĦìĬ¤": 4095,
      "ìĭ¬íŀĪ": 4096,
      "Ġíķ¨ìľł": 4097,
      "ĠìĹ´ê³ł": 4098,
      "ì£¼ëħĦ": 4099,
      "ìĻľ": 4100,
      "ĠìĺĪë¹Ħ": 4101,
      "Ġê·¸ë¦¬": 4102,
      "ĠêµŃë¯¼ëĵ¤": 4103,
      "Ġê°ķëł¥íķľ": 4104,
      "ëĲĺìĸ´ìķ¼": 4105,
      "Ġë°ľìĥĿíķĺëĬĶ": 4106,
      "Ġêµ´": 4107,
      "ĠìµľìłĢ": 4108,
      "ĠìĤ¬ê³¼": 4109,
      "Ġê¸´ê¸ī": 4110,
      "ìŀĳìļ©": 4111,
      "Ġìĺ¤ëŀľ": 4112,
      "Ġë²Įìĸ´": 4113,
      "Ġì±Ķ": 4114,
      "ìĤ°íĻĶ": 4115,
      "Ġë°ĶëĢĮ": 4116,
      "Ġíķľë°ĺëıĦ": 4117,
      "Ġê°ĢìĿ´ëĵľ": 4118,
      "ì§ĢìĪĺ": 4119,
      "ĠìĿ´ìļ©íķ´": 4120,
      "Ġì±Ļ": 4121,
      "Ġê°Ģêµ¬": 4122,
      "Ġê´ľ": 4123,
      "Ġì§ģìĹħ": 4124,
      "Ġì¶©ìłĦ": 4125,
      "ì²´ìĿ¸": 4126,
      "ĠëĤĺë¨¸ì§Ģ": 4127,
      "Ġìĭ¤ì²ľ": 4128,
      "ëĺĲëĬĶ": 4129,
      "Ġê¸°ìļ¸": 4130,
      "ĠíĻĶíķ©ë¬¼": 4131,
      "ë³´ìŀĲ": 4132,
      "Ġë°©ìĹŃ": 4133,
      "ìŀĸ": 4134,
      "ĠìŀĲìľ¨": 4135,
      "Ġë¬¸ìłľìłĲ": 4136,
      "ĠìĭłìĨį": 4137,
      "ë¶Ħìķ¼": 4138,
      "Ġëĭ¤ëĭĪ": 4139,
      "ëĵľë¦¬": 4140,
      "ìļ´ìĺģ": 4141,
      "ĠíĸĪì§Ģë§Į": 4142,
      "Ġë°Ķëĭ¤": 4143,
      "ìļ°ê³ł": 4144,
      "Ġìĥ¤": 4145,
      "Ġê°ĢëĵĿ": 4146,
      "46": 4147,
      "ĠëĮĢê·ľëª¨": 4148,
      "ĠìŀĪìĸ´ìķ¼": 4149,
      "Ġê°ľë°©": 4150,
      "ì¢ĭ": 4151,
      "Ġê¹Ģìłķ": 4152,
      "Ġê¹Į": 4153,
      "ĠëĶ±": 4154,
      "Ġë¬ĺ": 4155,
      "....": 4156,
      "ĠìĿĺëıĦ": 4157,
      "Ġë§¨": 4158,
      "ĠìłĦíĪ¬": 4159,
      "Ġë¦¬ëįĶ": 4160,
      "ĠìĪĺì¹ĺ": 4161,
      "96": 4162,
      "ëĪĪ": 4163,
      "ĠíĻĶíķĻ": 4164,
      "Ġê²Įìĭľ": 4165,
      "Ġë¯¸ìĦ¸": 4166,
      "ëŀĢëĵľ": 4167,
      "Ġêº¼": 4168,
      "ë£¡": 4169,
      "Ġìľµ": 4170,
      "íķ´ì£¼": 4171,
      "Ġë¹łë¥¸": 4172,
      "**": 4173,
      "Ġë§Įëĵ¤ê¸°": 4174,
      "íĻĶìŀĲ": 4175,
      "Ġìļ´ìłĦ": 4176,
      "ĠëıĻê¸°": 4177,
      "Ġì»¤ë®¤ëĭĪ": 4178,
      "ìŀ¬íĮĲ": 4179,
      "Ġì²ĺë²Į": 4180,
      "Ġíı¬ìĿ¸íĬ¸": 4181,
      "Ġê´ĢìłĲ": 4182,
      "ĠëĮĢê¸°": 4183,
      "ìħĭ": 4184,
      "ħëĭĪëĭ¤": 4185,
      "ì¹ĺë£Į": 4186,
      "Ġì§Ģë°°": 4187,
      "ìĹĲìļĶ": 4188,
      "ìĭľê¸°": 4189,
      "ë¯¹": 4190,
      "Ġê³µëª¨": 4191,
      "Ġì²łìłĢ": 4192,
      "ĠìłĦëĤ¨": 4193,
      "Ġë¶Ħë¥ĺ": 4194,
      "Ġê¸°ë¶Ħ": 4195,
      "ĠìķĦëĤ´": 4196,
      "ĠìĬ¹ìĿ¸": 4197,
      "Ġìĥģëĭ¹íŀĪ": 4198,
      "Ġë°±ìĭł": 4199,
      "ìĪĺìĤ¬": 4200,
      "Ġì¶Ķì¶ľ": 4201,
      "ĠìļĶìĿ¸": 4202,
      "ì§ĦíĿ¥": 4203,
      "ìĭ¼": 4204,
      "ê°Ķ": 4205,
      "Ġë°°íĦ°ë¦¬": 4206,
      "ë§Įíķľ": 4207,
      "ĠëªħíĻķ": 4208,
      "Ġë¹łìł¸": 4209,
      "ĠìĽĢì§ģìŀĦ": 4210,
      "Ġë°¥": 4211,
      "ê²ģ": 4212,
      "ìĬ¤íĨł": 4213,
      "Ġê°¤": 4214,
      "Ġì·¨ìĨĮ": 4215,
      "ì²«": 4216,
      "ëĵ±ë¡Ŀ": 4217,
      "ĠìľłëĭĽ": 4218,
      "ëļ": 4219,
      "ĠëĮĢìĤ¬": 4220,
      "ĠëĦĺëĬĶ": 4221,
      "ĠìĹ°íķ©": 4222,
      "Ġë´¤": 4223,
      "Ġë¬´ìĹŃ": 4224,
      "ì¹ĺì§Ģ": 4225,
      "Ġë¯¸ë§Į": 4226,
      "Ġëī´ìļķ": 4227,
      "47": 4228,
      "íĬ¸ë¦¬": 4229,
      "ë¹Ħìļ©": 4230,
      "Ġì·¨ì§Ģ": 4231,
      "Ġì§ģìĽĲëĵ¤": 4232,
      "Ġê¶Įëł¥": 4233,
      "Ġì§ĵ": 4234,
      "ëĪĦë¦¬ëĭ¹": 4235,
      "Ġë¶ĢìĿ¸": 4236,
      "ë¿": 4237,
      "ĠëĶĶë°ĶìĿ´ìĬ¤": 4238,
      "ì°¨ë¡Ģ": 4239,
      "Ġë°ľêµ´": 4240,
      "ìĹŃìĭľ": 4241,
      "êµĲíļĮ": 4242,
      "ĠêµŃë¬´": 4243,
      "Ġê°ĸì¶Ķ": 4244,
      "íĺĦì§Ģìĭľê°Ħ": 4245,
      "ì¢ħíķ©": 4246,
      "ĠëĤĺíĥĢëĤ´ëĬĶ": 4247,
      "ĠíĸĪìĬµëĭĪëĭ¤": 4248,
      "ĠíĥľëıĦ": 4249,
      "ìĤ¬ìĿ´": 4250,
      "ĠìĿ´ëĭ¬": 4251,
      "ĠìĹ°ì¶ľ": 4252,
      "Ġë§ĪìĿ´íģ¬": 4253,
      "ê²°êµŃ": 4254,
      "Ġì¦Ĳê¸¸": 4255,
      "09": 4256,
      "ĠíĻĢ": 4257,
      "ĠìĮį": 4258,
      "ê¾¼": 4259,
      "Ġê¼¬": 4260,
      "Ġë¡ľë´ĩ": 4261,
      "ĠëĬĺìĸ´ëĤĺ": 4262,
      "ì§ĢëıĦ": 4263,
      "Ġê¸°ê¸°": 4264,
      "ë¹Į": 4265,
      "ê°ľìłķ": 4266,
      "Ġê±·": 4267,
      "Ġê°ķìłľ": 4268,
      "ĠëįĶë¶Īìĸ´ë¯¼ì£¼ëĭ¹": 4269,
      "ì°į": 4270,
      "êµ¬ìĹŃ": 4271,
      "íļĮê²¬": 4272,
      "Ġë³µíķ©": 4273,
      "Ġêµ¬ê¸Ģ": 4274,
      "ĠìĿ´ìļ©íķł": 4275,
      "Ġë³µìŀ¡": 4276,
      "Ġë³´ê³łìĦľ": 4277,
      "ĠíĮĮíĬ¸": 4278,
      "ìĤ¬ëŀĳ": 4279,
      "ĠíĺķìĦ±ëĲľ": 4280,
      "ìłģìĿ´ëĭ¤": 4281,
      "ĠìĬ¤íģ¬": 4282,
      "Ġì£¼ê¸°": 4283,
      "ê¸°ì§Ģ": 4284,
      "Ġë³´íĨµ": 4285,
      "ĠëıĦìĭľëĲľ": 4286,
      "ĠìĻĦìłĦ": 4287,
      "Ġëªħëł¹": 4288,
      "ì§ģìĽĲ": 4289,
      "Ġë°Ľì§Ģ": 4290,
      "Ġìĭłì²´": 4291,
      "Ġìľłìŀħ": 4292,
      "Ġê²Ģì¦Ŀ": 4293,
      "ĠìĤ½ìŀħ": 4294,
      "ê³µëĭ¨": 4295,
      "Ġìĺ¬ë¦¼íĶ½": 4296,
      "Ġì°¾ëĬĶ": 4297,
      "Ġë³¸ëĭ¤": 4298,
      "ĠìĿĺìŀ¥": 4299,
      "Ġë©¤ë²Ħ": 4300,
      "ì§Ģë©´": 4301,
      "ê±°ëĵł": 4302,
      "ìĮĢ": 4303,
      "ĠíĨµìĥģ": 4304,
      "Ġìµľìłģ": 4305,
      "Ġìŀ¥ì°©": 4306,
      "Ġëĭ¹êµŃ": 4307,
      "ĠìĪĺë§İìĿĢ": 4308,
      "ĠìĽĲìŀĲ": 4309,
      "Ġê³µíı¬": 4310,
      "ê·¸ëŁ¬ë©´ìĦľ": 4311,
      "08": 4312,
      "ìĤ¬ë¬´": 4313,
      "Ġìľłíĺķ": 4314,
      "âĨĴ": 4315,
      "ĠìĪĺì§Ģ": 4316,
      "Ġë°ĶìĿ´ëŁ¬ìĬ¤": 4317,
      "Ġê¶Įíķľ": 4318,
      "ĠìłĳìĪĺ": 4319,
      "ĠíķĺìĺĢëĭ¤": 4320,
      "ê¹¨": 4321,
      "ĠìĥĪë¡ľ": 4322,
      "Ġìĭ¬ë¦¬": 4323,
      "ĠìĨĲíķ´": 4324,
      "Ġë¹¨ë¦¬": 4325,
      "Ġë©ĭ": 4326,
      "ì«": 4327,
      "ìĿ´íĶĦ": 4328,
      "ìĺ¬ë¦¼íĶ½": 4329,
      "49": 4330,
      "ìĿ¼ê¹Į": 4331,
      "ĠìłĲìłĲ": 4332,
      "ĠíĨµìłľ": 4333,
      "ĠìĪĺëıĦê¶Į": 4334,
      "Ġëĵ¤ê³ł": 4335,
      "ĠíĹ¬": 4336,
      "Ġê°ľë³Ħ": 4337,
      "Ġë°©ì¹¨ìĿ´ëĭ¤": 4338,
      "Ġì¤ĳìļĶíķĺëĭ¤": 4339,
      "Ġì²´ìłľ": 4340,
      "Ġë©Ķëª¨ë¦¬": 4341,
      "Ġë°ľíĳľíĸĪëĭ¤": 4342,
      "Ġíķ´ëĭ¹íķĺëĬĶ": 4343,
      "ìĿ´ëĿ¼ëıĦ": 4344,
      "Ġë§ŀì¶¤": 4345,
      "ĠìĥĿíĥľ": 4346,
      "ĠìĨĶë£¨ìħĺ": 4347,
      "07": 4348,
      "ĠëĤ¸": 4349,
      "ë©¸": 4350,
      "Ġë³´ìĿ´ê³ł": 4351,
      "ìĹħìŀĲ": 4352,
      "Ġë¶Īê°Ģ": 4353,
      "ĠìĭłìĦ¤": 4354,
      "ìĽĮëĵľ": 4355,
      "Ġì¡°ìŀĳ": 4356,
      "Ġê°Ģê¹Įìļ´": 4357,
      "03": 4358,
      "Ġë¸ĮëĿ¼": 4359,
      "ĠíİĺìĿ´ìĬ¤ë¶ģ": 4360,
      "Ġìłľê³µíķł": 4361,
      "Ġìķķëł¥": 4362,
      "Ġêµ¬ìĦ±ëĲľ": 4363,
      "ëį´": 4364,
      "ĠìĹ°ëĿ½": 4365,
      "ë¬¼ê´Ģ": 4366,
      "ĠëĿ¼ëĬĶ": 4367,
      "ìĭľë¯¼": 4368,
      "ë¹ĦìķĦ": 4369,
      "Ġìĩ¼íķĳ": 4370,
      "Ġê·¸ë¦¬ìĬ¤": 4371,
      "52": 4372,
      "Ġë°ĿíŀĪ": 4373,
      "Ġë°ķìĤ¬": 4374,
      "ìĦ¸íı¬": 4375,
      "ĠìĬ¤íħĮ": 4376,
      "ìĥģíĥľ": 4377,
      "ìĭľìĺ¤": 4378,
      "íĥĳ": 4379,
      "Ġì´Ŀìŀ¥": 4380,
      "Ġíĸ¥íķ´": 4381,
      "Ġêµ¬ì²´ìłģ": 4382,
      "ì§Ģìĸ´": 4383,
      "Ġì¤ĳëŁī": 4384,
      "íĻĶìłĲ": 4385,
      "06": 4386,
      "ìĿĦê¹Į": 4387,
      "ĠìķĮê²Į": 4388,
      "ëĭĪíĦ°": 4389,
      "Ġê°Ģë¥´": 4390,
      "ĠìĿ´ë¡ł": 4391,
      "ĠëĤĺë¬´": 4392,
      "íļ¨ê³¼": 4393,
      "ĠìĿĺìĭĿ": 4394,
      "ìī½": 4395,
      "ìĺĢìĬµëĭĪëĭ¤": 4396,
      "Ġìĸ´ëĸł": 4397,
      "Ġì£¼ê±°": 4398,
      "Ġê°ľìĭľ": 4399,
      "Ġë§Īì¹ĺ": 4400,
      "Ġê²½ìłľìłģ": 4401,
      "ĠìĿ´íĸī": 4402,
      "Ġì£¼ìĿĺ": 4403,
      "Ġê¾¸ì¤ĢíŀĪ": 4404,
      "Ġìĥģìĥģ": 4405,
      "Ġëĵ¤ë©´": 4406,
      "Ġë¬´ìĬ¨": 4407,
      "ĠëŀĢ": 4408,
      "ĠìĻĦë²½": 4409,
      "ë²Ķì£Ħ": 4410,
      "ìĹ¬ìĦ±": 4411,
      "ë£¸": 4412,
      "Ġë¶ĢíĴĪ": 4413,
      "Ġë³´ìĿ´": 4414,
      "Ġëĺĳ": 4415,
      "ëŀĦ": 4416,
      "ìºł": 4417,
      "Ġëįľ": 4418,
      "ĠìŀĪìľ¼ë©´": 4419,
      "Ġêµīìŀ¥": 4420,
      "ë²ĶìľĦ": 4421,
      "ëŀįëĭĪëĭ¤": 4422,
      "Ġìī½ì§Ģ": 4423,
      "ĠìĹ´ìĸ´": 4424,
      "Ġì§ĪíĻĺ": 4425,
      "ĠìķĦëĭĲ": 4426,
      "íĸĪìľ¼ëĤĺ": 4427,
      "Ġìŀ¥ìķłìĿ¸": 4428,
      "Ġì´ĿìĦł": 4429,
      "ìĬ¤íĭ°": 4430,
      "Ġì¢ħëª©": 4431,
      "ê³µê°ľ": 4432,
      "ëĭ¹êµŃ": 4433,
      "ĠêµŃíĨł": 4434,
      "Ġê²ĥìĿ´": 4435,
      "Ġê¸°ìĨĮ": 4436,
      "Ġê³łìĸĳ": 4437,
      "ĉĉ": 4438,
      "Ġìĭľìŀĳíķľ": 4439,
      "Ġì¡°ìĦ±ë¬¼": 4440,
      "ĠíĮ¬ëĵ¤": 4441,
      "ĠìłĦê°ľ": 4442,
      "ĠìŀĪìľ¼ëĤĺ": 4443,
      "ĠìļĶì¦ĺ": 4444,
      "ĠìłĢëħģ": 4445,
      "ê°ľíĺģ": 4446,
      "ëĵ¯ìĿ´": 4447,
      "Ġê°Ĳì§Ģ": 4448,
      "ĠìŀĳëħĦ": 4449,
      "Ġìĸ´ì©": 4450,
      "Ġëª¨ì§ĳ": 4451,
      "43": 4452,
      "ìĭľíĤ¤ê¸°": 4453,
      "Ġë¹Ħíĸī": 4454,
      "íķľêµŃëĭ¹": 4455,
      "ìĭľê³ł": 4456,
      "ê²°ìłķ": 4457,
      "ìĿ´ë¸Ķ": 4458,
      "ĠìĶ": 4459,
      "ĠìĿ´ëĿ¼ë©°": 4460,
      "íŀĲ": 4461,
      "Ġìŀħì£¼": 4462,
      "Ġê¸°ìŀĲíļĮê²¬": 4463,
      "ëªħíķľ": 4464,
      "ĠìĹ´ë¦¬ëĬĶ": 4465,
      "áĦıáĦıáĦı": 4466,
      "Ġê²°ìłľ": 4467,
      "ë·Ķ": 4468,
      "ĠìŀĦìĭľ": 4469,
      "Ġì£½ìĿĮ": 4470,
      "Ġëª¨ëĵľ": 4471,
      "ĠìĿ´ë¥¸": 4472,
      "Ġì¶Ķêµ¬": 4473,
      "Ġë´Ħ": 4474,
      "Ġìłķê¸°": 4475,
      "íĺģìĭł": 4476,
      "Ġìĥģì§ķ": 4477,
      "íİĺìĿ´ìĬ¤": 4478,
      "Ġêµ³": 4479,
      "^^": 4480,
      "ĠìĥģëĮĢìłģ": 4481,
      "Ġëĭ¤ìĨĮ": 4482,
      "Ġê°ĻìĬµëĭĪëĭ¤": 4483,
      "ĠìłĦë¶Ģ": 4484,
      "ìŀī": 4485,
      "210": 4486,
      "Ġë°Ķëĭ¥": 4487,
      "ê°ľêµŃ": 4488,
      "ĠìŀĬ": 4489,
      "Ġë§¤ì²´": 4490,
      "ĠìĹĶì§Ħ": 4491,
      "ĠíĶĦë¦¬ë¯¸": 4492,
      "ĠíķľíħĮ": 4493,
      "ĠìłĢíĿ¬": 4494,
      "ĠìĪĺìĽĲ": 4495,
      "ĠêµĲìĤ¬": 4496,
      "ĠìĤ¬ìļ©íķĺìĹ¬": 4497,
      "Ġíĳľì¤Ģ": 4498,
      "Ġê±´ì¡°": 4499,
      "êµ°ê°Ģ": 4500,
      "ëĬĦ": 4501,
      "Ġì§Ħìŀħ": 4502,
      "Ġìĵ°ëĬĶ": 4503,
      "ê¸°ëĬ¥": 4504,
      "íĺ¸íĻĶ": 4505,
      "ìĹĪì§Ģë§Į": 4506,
      "ĠìĺĪìĥģëĲľëĭ¤": 4507,
      "ĠìĬ¤íĨłë¦¬": 4508,
      "ĠëıĦìĻĢ": 4509,
      "Ġë°ĳ": 4510,
      "Ġì¢ħë£Į": 4511,
      "ĠìĿ¸ê³µì§ĢëĬ¥": 4512,
      "ĠìĿ¸ìŀ¬": 4513,
      "ìĭłì²Ń": 4514,
      "Ġë¸ĶëŀĻ": 4515,
      "Ġíķ´ìĸĳ": 4516,
      "ìĭľì¦Į": 4517,
      "195": 4518,
      "Ġì§Īë³ĳ": 4519,
      "Ġì¶ľìłĦ": 4520,
      "ë¶ĦìĦĿ": 4521,
      "ìłķìĥģ": 4522,
      "ì¤ĳíķľ": 4523,
      "Ġë¹ĦëĤľ": 4524,
      "02": 4525,
      "ĠìĺĪìķ½": 4526,
      "ì´Ŀìŀ¥": 4527,
      "ëłĪìĿ´ëĵľ": 4528,
      "Ġìķ¨": 4529,
      "Ġê¹Ķ": 4530,
      "íħĮíģ¬": 4531,
      "ĠìĨĮìĦ¤": 4532,
      "Ġê²½ë¶ģ": 4533,
      "Ġë²łíĬ¸ëĤ¨": 4534,
      "ë¯¸ëŀĺ": 4535,
      "ìķĦìļ¸ëŁ¬": 4536,
      "ĠìĦ¼íĦ°": 4537,
      "Ġ+": 4538,
      "Ġê¸´ìŀ¥": 4539,
      "Ġìłľìŀ¬": 4540,
      "ëªĩ": 4541,
      "íĨµíķ©": 4542,
      "Ġëĵ¤ìĹĪëĭ¤": 4543,
      "Ġê·¸ë¦°": 4544,
      "Ġê·¸ëķĮ": 4545,
      "Ġìĸ´ëłµëĭ¤": 4546,
      "Ġê²½ê³Ħ": 4547,
      "ìĩł": 4548,
      "Ġë²ķìķĪ": 4549,
      "ìĪĺìĪĺ": 4550,
      "Ġê¸°ë¶Ģ": 4551,
      "ĠëģĮìĸ´": 4552,
      "ĠìĹ´ìĭ¬íŀĪ": 4553,
      "ìĹ½": 4554,
      "Ġë°ľíĳľíķľ": 4555,
      "ĠìĿ¼ëĮĢ": 4556,
      "íıŃëł¥": 4557,
      "ĠìłĪë°ĺ": 4558,
      "Ġë¡¤": 4559,
      "Ġê´ĢëŀĮ": 4560,
      "ìĪ¨": 4561,
      "Ġë°ľìĤ¬": 4562,
      "Ġì£¼ë§Ĳ": 4563,
      "ĠíĺķìĭĿ": 4564,
      "ê¸°ìĤ¬": 4565,
      "ê°Ģì¹ĺ": 4566,
      "ĠìıŁìķĦ": 4567,
      "ìĿį": 4568,
      "ĠìĿ¸íĶĦëĿ¼": 4569,
      "ĠíĥĦìĨĮ": 4570,
      "Ġì¢ĭìķĦíķĺëĬĶ": 4571,
      "ëĦĺ": 4572,
      "ĠëĨįìĹħ": 4573,
      "ëŁŃìĭľ": 4574,
      "Ġë²łìĿ´": 4575,
      "Ġì´Īê³¼": 4576,
      "Ġêµ¬ê°Ħ": 4577,
      "Ġë¨¹ëĬĶ": 4578,
      "Ġê´ľì°®": 4579,
      "ë°ĶìĿ´ëŁ¬ìĬ¤": 4580,
      "Ġëĭ¤ìļ´": 4581,
      "ãĥ": 4582,
      "ĠìĤ¬ìľł": 4583,
      "ĠíĨµê³Ħ": 4584,
      "Ġìĸ»ìĿĦ": 4585,
      "ĠìĬ¤íĬ¸ëłĪìĬ¤": 4586,
      "Ġë§ĮëĤľ": 4587,
      "ĠìĥĪë¡Ńê²Į": 4588,
      "ìłĦëŀµ": 4589,
      "ĠìŀĦê¸Ī": 4590,
      "Ġë¯¼ì¡±": 4591,
      "ìĥģíĻ©": 4592,
      "Ġìĥģê´Ģ": 4593,
      "ĠëĤĺìĻĶ": 4594,
      "ìłĦìŁģ": 4595,
      "ĠëĮĢë³ĢìĿ¸": 4596,
      "ëĵ¬": 4597,
      "04": 4598,
      "ĠìķĦìĿ´ëĶĶìĸ´": 4599,
      "ĠìĿĮìĦ±": 4600,
      "ëĭ´íļĮ": 4601,
      "Ġíķ«": 4602,
      "ĠëĤĺê°Ī": 4603,
      "ĠìĭľìľĦ": 4604,
      "ĠìĪĺìĨĮ": 4605,
      "ìłľì£¼": 4606,
      "Ġì·¨ëĵĿ": 4607,
      "ë¦¬ë©°": 4608,
      "ìŀĲìľł": 4609,
      "ë³´ê±´": 4610,
      "íĮĮíģ¬": 4611,
      "ìł¤": 4612,
      "ĠìĪĺìĦĿ": 4613,
      "ĠëĨĴëĭ¤": 4614,
      "Ġë¶Ģë¶Ģ": 4615,
      "ìĿ¸ì²ľ": 4616,
      "êµ¬ëĤĺ": 4617,
      "ì¹¸": 4618,
      "ìĿ´ìļ©": 4619,
      "Ġìłķì²´": 4620,
      "ìĭ¤ìĭľ": 4621,
      "Ġê°ĢìĬ´": 4622,
      "Ġë§Ĳê³ł": 4623,
      "Ġë¶Ģê³¼": 4624,
      "Ġì¹ľêµ¬ëĵ¤": 4625,
      "ìŀĦê¸Ī": 4626,
      "ìĤ¬ê±´": 4627,
      "ĠìķĪë³´": 4628,
      "ë´¤": 4629,
      "ìŀł": 4630,
      "ĠíĢ": 4631,
      "ìĥ¤": 4632,
      "Ġíģ¬ë¦¬ìĬ¤": 4633,
      "ìĭľíĭ°": 4634,
      "ĠìłĦìķķ": 4635,
      "250": 4636,
      "ĠìłĦë¶ģ": 4637,
      "ĠìłĦë¬¸ê°Ģëĵ¤": 4638,
      "ëĵłì§Ģ": 4639,
      "ê´Ģëł¨": 4640,
      "ĠëıĻìĺģìĥģ": 4641,
      "ĠíĸĪëĬĶëį°": 4642,
      "ë³ĢíĻĶ": 4643,
      "Ġëĭ¨ìĿ¼": 4644,
      "ë°ĽìķĦ": 4645,
      "ì¡°ì§ģ": 4646,
      "Ġì¶ķìłľ": 4647,
      "ë¬¸íķĻ": 4648,
      "Ġíĺ¼íķ©": 4649,
      "Ġêµīìŀ¥íŀĪ": 4650,
      "ëįĶëĿ¼ê³ł": 4651,
      "ĠìĿ´ìĬĪ": 4652,
      "ĠìŀĲê·¹": 4653,
      "ìĬ¤íĮħ": 4654,
      "ĠíĻľìķ½": 4655,
      "Ġì¹ľíĻĺê²½": 4656,
      "ìļĶìĨĮ": 4657,
      "Ġë°ľíĸī": 4658,
      "ĠìĿ´ìĤ¬": 4659,
      "ĠíĺķìĤ¬": 4660,
      "ìłľíķľ": 4661,
      "ëĥĪ": 4662,
      "Ġëªħì¹Ń": 4663,
      "Ġê¹ĬìĿĢ": 4664,
      "Ġë§ĽìŀĪ": 4665,
      "ë¨¼ì§Ģ": 4666,
      "ìĿ´ìĸ´ìĦľ": 4667,
      "íĻĶíķĻ": 4668,
      "ĠíĮĲìłķ": 4669,
      "ìĥĿìĤ°": 4670,
      "ĠìķĬê²Į": 4671,
      "ìĿ¼ë¶Ģ": 4672,
      "Ġëª¨ëĭĪíĦ°": 4673,
      "Ġë§Įíķľ": 4674,
      "ĠìķĮëł¤ìł¸": 4675,
      "Ġìĺ¬ëł¤": 4676,
      "ĠìļĶë¦¬": 4677,
      "ëª¨ëĵł": 4678,
      "Ġìĭ«": 4679,
      "ĠìłģìłĪíķľ": 4680,
      "Ġìļ©ê¸°": 4681,
      "ë¬ĺ": 4682,
      "ĠìĤ´ê³ł": 4683,
      "ĠìłķíĻķíķľ": 4684,
      "Ġê²½ê³ł": 4685,
      "ìŀĲìĤ°": 4686,
      "Ġë°ĺë°ľ": 4687,
      "Ġëĵ£ê³ł": 4688,
      "Ġë¯¸ìĪł": 4689,
      "Ġë¬¸ìĦľ": 4690,
      "99": 4691,
      "Ġë³´ê´Ģ": 4692,
      "Ġëĭ¨ë§Ĳê¸°": 4693,
      "Ġì§ľ": 4694,
      "Ġê±°ëĵŃ": 4695,
      "Ġê°ĻìķĦìļĶ": 4696,
      "ĠìķĦìī¬": 4697,
      "ĠìĤ¬ìļ©ëĲĺëĬĶ": 4698,
      "ĠìĭĿìĤ¬": 4699,
      "ë£¬": 4700,
      "Ġëĭµë³Ģ": 4701,
      "ì¥Ĳ": 4702,
      "Ġì§ģë¬´": 4703,
      "ĠìĿ¼ë°ĺìłģ": 4704,
      "ëĮĢíĨµëł¹": 4705,
      "ê°ĲìĤ¬": 4706,
      "ĠëĶ°ëľ»": 4707,
      "ì¡°ì¹ĺ": 4708,
      "ĠìłĢíķŃ": 4709,
      "ê±´ì¶ķ": 4710,
      "êµĲìľ¡ì²Ń": 4711,
      "ëıħêµĲ": 4712,
      "Ġê°ĢìĪĺ": 4713,
      "ĵê¸Ģ": 4714,
      "ĠíħĮìĬ¤íĬ¸": 4715,
      "íķĺê²łëĭ¤ê³ł": 4716,
      "Ġë²ķìĿ¸": 4717,
      "Ġìĭ¤ìĭľê°Ħ": 4718,
      "ìĥģê³µ": 4719,
      "Ġë§Įëĵ¤ê³ł": 4720,
      "ëĵ¤ìĸ´": 4721,
      "ëģĦ": 4722,
      "ĠíĿ¬ìĥĿ": 4723,
      "ëıĻë¬¼": 4724,
      "Ġì·¨ìķ½": 4725,
      "ĠíķĺëĬĺ": 4726,
      "Ġíİ¸ë¦¬": 4727,
      "ĠëĤĺìĦ°ëĭ¤": 4728,
      "Ġê²ĥìĿ¸ì§Ģ": 4729,
      "ĠìĺĪìĭľ": 4730,
      "ìĹ°ê¸Ī": 4731,
      "Ġë¯¸ì¹ĺëĬĶ": 4732,
      "ĠêµĲë¥ĺ": 4733,
      "ĠìĦłíĺ¸": 4734,
      "Ġê°ĸì¶ĺ": 4735,
      "ëĭĪìĸ´": 4736,
      "Ġëĭ¨ìĸ´": 4737,
      "ìĪĺëĭ¨": 4738,
      "¼ìĨĲ": 4739,
      "ë¡ľìĬ¤": 4740,
      "ëĤĺëĭ¤": 4741,
      "ìĿ´íķľ": 4742,
      "ĠíķĦìļĶìĦ±": 4743,
      "Ġíŀĺëĵł": 4744,
      "ìķĺìĬµëĭĪëĭ¤": 4745,
      "Ġíľ": 4746,
      "ìĭ¤ìŀ¥": 4747,
      "51": 4748,
      "ì£¼ìĿ¼": 4749,
      "ĠìķĦëĭĪê³ł": 4750,
      "ĠëłĮ": 4751,
      "194": 4752,
      "ĠëªħìĺĪ": 4753,
      "ëŁ¬ë¦¬": 4754,
      "ĠìķĪíĥĢ": 4755,
      "Ġì§ģíĽĦ": 4756,
      "ìĿ´ì¦Ī": 4757,
      "ĠíĴįë¶Ģ": 4758,
      "Ġíĥĵ": 4759,
      "ê³µëıĻ": 4760,
      "ëª¸": 4761,
      "Ġìĺ¬ëŀĲëĭ¤": 4762,
      "Ġëĭ¹ë¶Ģ": 4763,
      "ì»¨ëĮĢ": 4764,
      "ĠìĦ¸ìĽĶ": 4765,
      "Ġëĭ¨ëıħ": 4766,
      "ì¿¨": 4767,
      "Ġê³łìľĦ": 4768,
      "ìĤŃ": 4769,
      "56": 4770,
      "ĠìĦŃì·¨": 4771,
      "Ġë°ķê·¼íĺľ": 4772,
      "Ġì¶ľë²Ķ": 4773,
      "Ġìķķë°ķ": 4774,
      "Ġë°¸": 4775,
      "ĠìľłìĹĶ": 4776,
      "ëĩ": 4777,
      "ê·¸ê²ĥ": 4778,
      "ĠëĮĢê¸°ìĹħ": 4779,
      "ìĪłíķľ": 4780,
      "Ġê°Ģê³µ": 4781,
      "Ġì¡°ê¸°": 4782,
      "ĠìĿ´ìĻ¸": 4783,
      "Ġê°ĳìŀĲê¸°": 4784,
      "Ġìķ½ê°Ħ": 4785,
      "ĠìłľìĿ¼": 4786,
      "Ġì§ķìĹŃ": 4787,
      "ĳìĬ¤": 4788,
      "ĠíıīìĨĮ": 4789,
      "Ġì¦Ŀê¶Į": 4790,
      "Ġì§ĢìłĲ": 4791,
      "Ġì²Ļ": 4792,
      "ĠíıĲì§Ģ": 4793,
      "ĠìĥĿì¡´": 4794,
      "íĮ©": 4795,
      "ĠíıŃë°ľ": 4796,
      "ĠëĿ": 4797,
      "ë°©ìĭĿ": 4798,
      "ĠìŀĦëªħ": 4799,
      "Ġìļ©ìĸ´": 4800,
      "Ġë¶Ģíĥģ": 4801,
      "Ġëħ¸ëıĻìŀĲ": 4802,
      "ĠìķĬê¸°": 4803,
      "900": 4804,
      "Ġì¶ľë§Ī": 4805,
      "ĠëĵĿ": 4806,
      "ë°ĽìĿĦ": 4807,
      "ê¹Ŀ": 4808,
      "Ġì§ĢìŀĲì²´": 4809,
      "íĮĮìĿ´": 4810,
      "íı¬íĬ¸": 4811,
      "ëĤ´ê¸°": 4812,
      "ëª½": 4813,
      "ëłĪìĿ¸": 4814,
      "Ġê°ľë´ī": 4815,
      "íĽĪëł¨": 4816,
      "ĠìĥĿê°ģíķĺëĬĶ": 4817,
      "Ġë¹ļ": 4818,
      "ìłķëıĦ": 4819,
      "ëĤĺëĬĶ": 4820,
      "íĸĪê¸°": 4821,
      "ëĵ±ê¸ī": 4822,
      "ĠìµľëĮĢíķľ": 4823,
      "ìķĺê³ł": 4824,
      "íĶ¼íķ´": 4825,
      "Ġë©Ī": 4826,
      "ëª¨ëį¸": 4827,
      "Ġë»": 4828,
      "Ġëħ¸ìĿ¸": 4829,
      "Ġëĵ¤ìĹ¬": 4830,
      "ëĮĢíĻĶ": 4831,
      "ĠíĮĮíĬ¸ëĦĪ": 4832,
      "ê·¸ëĵ¤": 4833,
      "íĤ¤ì§Ģ": 4834,
      "ìį¼": 4835,
      "ĠìĽĲëŀĺ": 4836,
      "ëĿ¼ìļ´ëĵľ": 4837,
      "Ġíģ¬ëĭ¤": 4838,
      "ĠìĿ¸ë¥ĺ": 4839,
      "Ġìĺģìĸĳ": 4840,
      "ë¯¸ëĶĶìĸ´": 4841,
      "íŀĪëĬĶ": 4842,
      "Ġì·¨ìŀĦ": 4843,
      "ì²´ìłľ": 4844,
      "ĠëĽ°ìĸ´": 4845,
      "ë¯¸íĦ°": 4846,
      "Ġë°ĿíŀĮ": 4847,
      "ĠìŀĪìĿĦê¹Į": 4848,
      "ĠëıĻë£Į": 4849,
      "ĠëĮĢíĳľìłģìĿ¸": 4850,
      "íĬ¸ìĹħ": 4851,
      "Ġë²ķìłģ": 4852,
      "ĠíĨłì§Ģ": 4853,
      "ĠìĺĽ": 4854,
      "ê±°ëĵłìļĶ": 4855,
      "Ġìº¡": 4856,
      "ĠìĽĲìŀ¥": 4857,
      "Ġë¬¸ìŀĲ": 4858,
      "ì²´ìłģ": 4859,
      "ìĭľì¼°ëĭ¤": 4860,
      "Ġë³Ģíĺķ": 4861,
      "Ġë§ĲíķĺëĬĶ": 4862,
      "ĠìĨĮë°©": 4863,
      "ìĭľë©´": 4864,
      "ĠëĶ°ë¡ľ": 4865,
      "íķĺëł¤ê³ł": 4866,
      "Ġê²ĥìĿ´ê³ł": 4867,
      "ĠìĦ¸ì¢ħ": 4868,
      "ëĤ´ìļ©": 4869,
      "Ġìĸ´ëĸłíķľ": 4870,
      "Ġìķ¼ëĭ¹": 4871,
      "ĠëĮĢìķĪ": 4872,
      "ĠëĬĲëĤĦ": 4873,
      "Ġê·łíĺķ": 4874,
      "Ġê½¤": 4875,
      "Ġì°½ì¡°": 4876,
      "Ġë°ĿíĺĶ": 4877,
      "Ġê²½ë¡ľ": 4878,
      "Ġê²ģëĭĪëĭ¤": 4879,
      "Ġë³´ìĹ¬ì£¼ëĬĶ": 4880,
      "ĠíĽĮ": 4881,
      "ĠëĤĺìĺ¬": 4882,
      "Ġê²°ë¡ł": 4883,
      "ĠìķĮëł¤ì§Ħ": 4884,
      "Ġë¬¼ê±´": 4885,
      "Ġê³¨íĶĦ": 4886,
      "Ġíĺģëªħ": 4887,
      "Ġë§ĲìĿ´ëĭ¤": 4888,
      "Ġìłķë¹Ħ": 4889,
      "ëıĦë¡ľ": 4890,
      "ìĽĶëĵľ": 4891,
      "ëĭ·": 4892,
      "Ġì£¼ê´Ģ": 4893,
      "íĮĲë§¤": 4894,
      "Ġëĵ¤ìĸ´ìĦľ": 4895,
      "ĠíĻĶìŀ¬": 4896,
      "ìŀĺ": 4897,
      "ë¸Įë¦¬": 4898,
      "ĠìĹ°ê°Ħ": 4899,
      "íĻĶë¬¼": 4900,
      "ĠíĮĮê´´": 4901,
      "Ġë°ĶëŀĮì§ģíķĺëĭ¤": 4902,
      "ĠëŃĶ": 4903,
      "Ġë¥ĺ": 4904,
      "ëĭĺëĵ¤": 4905,
      "Ġê°ĢìĦľ": 4906,
      "Ġê°ĲìķĪ": 4907,
      "ĠìĭľìĦł": 4908,
      "Ġì°©ìļ©": 4909,
      "ĠíĽĦìĽĲ": 4910,
      "58": 4911,
      "ĠìķĦë¦Ħëĭ¤ìļ´": 4912,
      "íĽĦë³´": 4913,
      "ìĨĮë¹Ħ": 4914,
      "Ġê°ĢëıĻ": 4915,
      "Ġì§ĳê³Ħ": 4916,
      "Ġë°ľìĥĿíķł": 4917,
      "Ġëĭ´ìĿĢ": 4918,
      "ê³µìŀ¥": 4919,
      "ĠíĻľë°ľ": 4920,
      "ĠíķĦë¦Ħ": 4921,
      "Ġëįķë¶Ħ": 4922,
      "ëĩĮ": 4923,
      "ĠíĥĦìĥĿ": 4924,
      "Ġìĥģë°ĺê¸°": 4925,
      "ĠíķĺìŀĲ": 4926,
      "Ġëĭ¤ë£¨": 4927,
      "Ġë¡ľìį¨": 4928,
      "Ġë¶ĢíļĮìŀ¥": 4929,
      "Ġìļ°ìĪĺíķľ": 4930,
      "ĠêµŃíļĮìĿĺìĽĲ": 4931,
      "ĠìĥĿê¸´": 4932,
      "Ġë§ĪìłĢ": 4933,
      "ë°ĸ": 4934,
      "ìĪĺìĽĲ": 4935,
      "ĠíıŃëł¥": 4936,
      "ĠíļĮë¡ľ": 4937,
      "Ġìĭ¬ìĿĺ": 4938,
      "ĠìħĪìĿ´ëĭ¤": 4939,
      "ì§ĪíĻĺ": 4940,
      "ĠíĦ°ì¹ĺ": 4941,
      "ĠìĥĪëĪĦë¦¬ëĭ¹": 4942,
      "Ġê¹ĬìĿ´": 4943,
      "ĠíĮ¨ìħĺ": 4944,
      "ĠíĹĪê°Ģ": 4945,
      "ê¸°íļį": 4946,
      "ĠíĽĦë°ĺ": 4947,
      "220": 4948,
      "59": 4949,
      "ìĿĺìĭĿ": 4950,
      "Ġê³ĦìĹ´": 4951,
      "Ġì½Ķëĵľ": 4952,
      "Ġëª¨ìĹ¬": 4953,
      "Ġê³¤": 4954,
      "ëĭµëĭĪëĭ¤": 4955,
      "Ġì´Īë°ĺ": 4956,
      "ëķ": 4957,
      "ë°±ì§Ī": 4958,
      "Ġì¹¨íķ´": 4959,
      "Ġëĭ¤ë¦¬": 4960,
      "Ġê³łê°Ŀëĵ¤": 4961,
      "ĠìłĢëł´": 4962,
      "ìŀĲìĭł": 4963,
      "íĺĦìŀ¥": 4964,
      "âĸ¶": 4965,
      "Ġìŀ¡ìķĦ": 4966,
      "ëĶľ": 4967,
      "ë¦¬ê²Į": 4968,
      "ë¬µ": 4969,
      "Ġì«": 4970,
      "Ġê·ľì¹Ļ": 4971,
      "Ġì£¼ê°Ģ": 4972,
      "ĠìĬĪíį¼": 4973,
      "Ġë³µê·Ģ": 4974,
      "Ġì§Ħìĭ¤": 4975,
      "ëĨĵê³ł": 4976,
      "ë±ħ": 4977,
      "Ġìĭ¬ê°ģíķľ": 4978,
      "íĿĲ": 4979,
      "ê³µìłķ": 4980,
      "Ġê°ķìĿĺ": 4981,
      "ë¡¬": 4982,
      "ĠíĨłëĮĢ": 4983,
      "Ġê±°ê¸°": 4984,
      "Ġë³´ëıĦíĸĪëĭ¤": 4985,
      "Ġì±ĦíĥĿ": 4986,
      "ìĿ¸íĦ°ëĦ·": 4987,
      "Ġìļ´ìĺģíķĺëĬĶ": 4988,
      "ĠíĿ¡ìĪĺ": 4989,
      "160": 4990,
      "Ġìĸµìłľ": 4991,
      "Ġë°ľëĭ¬": 4992,
      "ĠëĦ¤ìĿ´ë²Ħ": 4993,
      "ëįĶëĿ¼ê³łìļĶ": 4994,
      "ĠìĤŃìłľ": 4995,
      "Ġê³łê¸ī": 4996,
      "ëŀ¬": 4997,
      "ìĭ¬ìĤ¬": 4998,
      "Ġëį°ë·Ķ": 4999,
      "Ġì§ĦíĻĶ": 5000,
      "ìľłëŁ½": 5001,
      "ê¸Īì§Ģ": 5002,
      "Ġê°Ģê¹ĮìĿ´": 5003,
      "ĠìĽĶëĵľì»µ": 5004,
      "ĠìĿ¼ìĸ´": 5005,
      "Ġìĭłë¬¸": 5006,
      "ĠìĨĮíĻĶ": 5007,
      "180": 5008,
      "ĠìĦ¸ëł¥": 5009,
      "ĠìºłíİĺìĿ¸": 5010,
      "Ġì¡°ëªħ": 5011,
      "ë¶Ģë¬¸": 5012,
      "Ġê°Ģë¡ľ": 5013,
      "Ġë²¨": 5014,
      "Ġë§ŀì¶Ķ": 5015,
      "ĠìľłíĬľë¸Į": 5016,
      "íĮ¬": 5017,
      "Ġê³µíĨµ": 5018,
      "57": 5019,
      "Ġê°Ģì§Ī": 5020,
      "ê°Ģê¸°": 5021,
      "Ġê²½íĸ¥": 5022,
      "ĠìķłíĶĮë¦¬ì¼ĢìĿ´ìħĺ": 5023,
      "Ġê´Ģëł¨íķľ": 5024,
      "ĠìĿ¸ì§Ģ": 5025,
      "ĠìĿ´ìŀ¬": 5026,
      "Ġìłľê³µíķĺê³ł": 5027,
      "Ġë¶Ģì°©": 5028,
      "ĠìŀĲìĭłëĵ¤": 5029,
      "Ġìĵ°ê³ł": 5030,
      "ĠíķĢ": 5031,
      "Ġì¹´ì¹´ìĺ¤": 5032,
      "ĠíķĦíĦ°": 5033,
      "ë²łìĿ´": 5034,
      "ĠíĬ¸ëŀľ": 5035,
      "Ġìĭ¤ëĤ´": 5036,
      "Ġìŀ¬ëĤľ": 5037,
      "ĠìµľìĨĮíĻĶ": 5038,
      "ëĤľëĭ¤": 5039,
      "ì¤¬ëĭ¤": 5040,
      "ĠëĪĦêµ°ê°Ģ": 5041,
      "Ġìłķê·ľ": 5042,
      "ì¿Ħ": 5043,
      "ĠìĹ°ê´Ģ": 5044,
      "íĶ¼ìĸ¸": 5045,
      "ëį¤": 5046,
      "Ġíĺĳìķ½": 5047,
      "Ġë¸Ķë¡ľê·¸": 5048,
      "ìĬµëĭĪê¹Į": 5049,
      "!!": 5050,
      "ĠìķĦëĭĪëĥĲ": 5051,
      "êµŃìŀ¥": 5052,
      "ĠìĹŃëĮĢ": 5053,
      "ĠìĽĲê³ł": 5054,
      "ĠëĪĪë¬¼": 5055,
      "ìĥĿëªħ": 5056,
      "ĠëıĦêµ¬": 5057,
      "ì£¼ë¯¼": 5058,
      "ëĩ¨": 5059,
      "ìĭ¤ìłľë¡ľ": 5060,
      "ĠëıĮíĮĮ": 5061,
      "ë§ĪìĬ¤": 5062,
      "Ġìľłëªħíķľ": 5063,
      "ëį°ìĿ´íĬ¸": 5064,
      "ë°©ìķĪ": 5065,
      "Ġëħ¸ìĦł": 5066,
      "Ġëĭ¤ëħĢ": 5067,
      "Ġê´Ģì¸¡": 5068,
      "Ġì§ĢìĤ¬": 5069,
      "Ġëį®": 5070,
      "Ġì§ĢìĽĲíķĺëĬĶ": 5071,
      "ĠìĿĺìĽĲëĵ¤": 5072,
      "ĠìĿ´ëĿ¼": 5073,
      "ë¥´íģ¬": 5074,
      "ĠëĤĺìĺ¤ê³ł": 5075,
      "Ġìĥģì²ĺ": 5076,
      "ĠíĿĶëĵ¤": 5077,
      "ìĦ¸íĬ¸": 5078,
      "Ġëħ¼ë¬¸": 5079,
      "¼ìª½": 5080,
      "ĠíĻįì½©": 5081,
      "ĠìŀĲëŀĳ": 5082,
      "ìĿ¸ê°Ħ": 5083,
      "Ġê²ĮìĿ´íĬ¸": 5084,
      "Ġì¶©ëıĮ": 5085,
      "ëħĦìĥĿ": 5086,
      "ê°ĢëĿ½": 5087,
      "ëĲĺê±°ëĤĺ": 5088,
      "ĠìĦ¸ê¸Ī": 5089,
      "ìĺĪìļĶ": 5090,
      "Ġë§Īê°Ĳ": 5091,
      "Ġë³ĢíĻĺ": 5092,
      "âĹĨ": 5093,
      "íĺĳìķ½": 5094,
      "ĠìķĦëĭĪë©´": 5095,
      "ĠìĿ´ëģĮìĸ´": 5096,
      "ë©į": 5097,
      "ìħī": 5098,
      "ĠìĨĲìĭ¤": 5099,
      "ëłĢëĭ¤": 5100,
      "ĠëĮĢë²ķìĽĲ": 5101,
      "ë©´ìłģ": 5102,
      "ĠíĻľìļ©íķ´": 5103,
      "ĠëĳĲëł¤": 5104,
      "Ġë³´ìĿ´ì§Ģ": 5105,
      "Ġâĸ¶": 5106,
      "Ġíĥĳìŀ¬": 5107,
      "Ġë§Įìķ½": 5108,
      "ì²©": 5109,
      "ĠëĮĢì²ĺ": 5110,
      "ë¨¼ìłĢ": 5111,
      "Ġë°ĶëŀįëĭĪëĭ¤": 5112,
      "ê´ĳì£¼": 5113,
      "Ġë°©ìĤ¬": 5114,
      "ĠëĿĦ": 5115,
      "ĠíĿ¥ë¯¸": 5116,
      "ì¹ľêµ¬": 5117,
      "ìłķìĭł": 5118,
      "ĠëĳĲê»ĺ": 5119,
      "ëĿ¼ìĹĺ": 5120,
      "ĠìĿ´íĥĪë¦¬ìķĦ": 5121,
      "ëıĦìĿ´ëĭ¤": 5122,
      "ĠìłĢìŀĳ": 5123,
      "Ġëª¨ìķĦ": 5124,
      "íķĺìĺĢê³ł": 5125,
      "ĠíĸĪê³ł": 5126,
      "ĠëĮĢë¶ģ": 5127,
      "Ġê²ĥìĿ¸ê°Ģ": 5128,
      "ë©ĶìĿ´ìħĺ": 5129,
      "Ġë¬´ë¦¬": 5130,
      "Ġê·¼ë³¸": 5131,
      "Ĳë¦¬": 5132,
      "ĠëĨĢëĿ¼": 5133,
      "ê¸°ìĹĲ": 5134,
      "ì¤į": 5135,
      "ìĭŃìĭľìĺ¤": 5136,
      "ëĶĶìķĦ": 5137,
      "íĺĳìĿĺíļĮ": 5138,
      "ìŀĳìĹħ": 5139,
      "ê·¸ëŁ¼": 5140,
      "Ġì¶ĶìĦ¸": 5141,
      "Ġë¨¹ìĿĦ": 5142,
      "ĠìĿ´ìĨ¡": 5143,
      "Ġë¯¸ìĤ¬ìĿ¼": 5144,
      "ĠìĪĺìĪĺ": 5145,
      "ìłĦê¸°": 5146,
      "ĠìķħíĻĶ": 5147,
      "íĤ·": 5148,
      "ë»": 5149,
      "ìĦľíĬ¸": 5150,
      "ìĿ´ëįĺ": 5151,
      "íĶĦë¡ľê·¸ëŀ¨": 5152,
      "´ëĵľ": 5153,
      "Ġëĭ¤ë§Į": 5154,
      "Ġë§Ĳíķ´": 5155,
      "Ġì¤Ħìĸ´ëĵ¤": 5156,
      "ìľĪ": 5157,
      "Ġê³³ê³³": 5158,
      "Ġë©ĶìĿ´": 5159,
      "ĠíĬ¸ëłĮ": 5160,
      "ë¦¬ìĬ¤íĬ¸": 5161,
      "Ġìŀłìĭľ": 5162,
      "Ġë°ľíľĺ": 5163,
      "âĹĭ": 5164,
      "Ġìľłë°ľ": 5165,
      "ĠëŁ°": 5166,
      "ìķ½íĴĪ": 5167,
      "Ġìĺ¤íĶĦ": 5168,
      "íİĺìĿ´": 5169,
      "Ġê°ľíİ¸": 5170,
      "Ġë¬´ìĭľ": 5171,
      "Ġë§İìķĺëĭ¤": 5172,
      "ë°°ìļ°": 5173,
      "ëĤĺìĿ´": 5174,
      "ë£©": 5175,
      "ëĮĢìĤ¬": 5176,
      "ĠíİĺìĿ´ì§Ģ": 5177,
      "ìĺĢê³ł": 5178,
      "Ġë¿ĲìĿ´ëĭ¤": 5179,
      "66": 5180,
      "ĠìĥģìľĦ": 5181,
      "ëĦ¥": 5182,
      "ĠìķĦëĬĶ": 5183,
      "ìľĦíĦ°": 5184,
      "ĠìĨĲìĥģ": 5185,
      "ê¸°ë³¸": 5186,
      "íķ´ìĸĳ": 5187,
      "ĠìłľìĻ¸íķľ": 5188,
      "ĠíĻľìļ©íķľ": 5189,
      "Ġìŀ¬ìĥĿ": 5190,
      "ĠëĤ´ê³ł": 5191,
      "Ġì´īì§Ħ": 5192,
      "ë¦¬ì¦ĺ": 5193,
      "Ġìļ´ìļ©": 5194,
      "ĠíĮ¨ëĦĲ": 5195,
      "«ìŀĲ": 5196,
      "ì¶ķêµ¬": 5197,
      "Ġìļ´íĸī": 5198,
      "Ġíķĺë°ĺê¸°": 5199,
      "ĠìĨĮë¹ĦìŀĲëĵ¤": 5200,
      "Ġíļ¡": 5201,
      "ìĭłíĺ¸": 5202,
      "Ġëĸłìĺ¬": 5203,
      "ĠìĿ´ìĽĥ": 5204,
      "ĠìĹ°ì£¼": 5205,
      "Ġë°©ìĸ´": 5206,
      "ĠíĦ¸": 5207,
      "Ġëĭ¬ëł¤": 5208,
      "Ġíİ¸ì§ĳ": 5209,
      "Ġìĭ¶ìĸ´": 5210,
      "ĠìĿĳìĽĲ": 5211,
      "ĠìłĲì°¨": 5212,
      "íĶĮëŁ¬ìĬ¤": 5213,
      "íķĺìĭł": 5214,
      "ĠìĦ¸íĬ¸": 5215,
      "ĠëĤ³": 5216,
      "ìĪĺëıĦ": 5217,
      "Ġì²łíķĻ": 5218,
      "ëłĪìĿ´ìħĺ": 5219,
      "Ġë¦¬ê·¸": 5220,
      "Ġë¦¬ìĸ¼": 5221,
      "ëĵľëŁ¬": 5222,
      "Ġë©ĶìĿ¸": 5223,
      "ìĹħë¬´": 5224,
      "Ġìŀłìŀ¬": 5225,
      "Ġì¢ģ": 5226,
      "ĠìĸĳêµŃ": 5227,
      "Ġê·¸ëł¤": 5228,
      "ĠìĨĮìĬ¤": 5229,
      "ĠëıĻë°ĺ": 5230,
      "Ġìĭ¤ëł¥": 5231,
      "Ġìĸ´ìļ¸": 5232,
      "ĠíĪ¬ëªħ": 5233,
      "Ġë¹ĦíĬ¸": 5234,
      "Ġë§Įëĵ¤ìĹĪëĭ¤": 5235,
      "Ġê²ĥìĿ´ë©°": 5236,
      "íĮĮìĪĺ": 5237,
      "ĠìķĦìĿ´íħľ": 5238,
      "Ġë°ĶëŀĮì§ģíķĺê²Į": 5239,
      "µì»¤": 5240,
      "ê³¼ìłľ": 5241,
      "ì±ħìŀĦ": 5242,
      "Ġíĺ¸ìĨĮ": 5243,
      "Ġì²ĺë¶Ħ": 5244,
      "ì¹ĺê²Į": 5245,
      "Ġìį¼": 5246,
      "ìŀ¬ìĤ°": 5247,
      "Ġíı¬íķ¨ëĲľ": 5248,
      "ĠëĤĺìķĦê°Ģ": 5249,
      "Ġìłľìłķ": 5250,
      "ë£°": 5251,
      "ê¸°ë¡Ŀ": 5252,
      "ĠìĺĪê³ł": 5253,
      "ìłĦê±°": 5254,
      "ĠìķĦë¹ł": 5255,
      "íķ´ìĻĶëĭ¤": 5256,
      "ĠìĿĺì¡´": 5257,
      "Ġìľłì¶ľ": 5258,
      "Ġê´Ģì°°": 5259,
      "Ġë¶ĢìľĦ": 5260,
      "ë¸Ĳ": 5261,
      "Ġì§Ĳ": 5262,
      "53": 5263,
      "ĠìľłìłĦìŀĲ": 5264,
      "ĠìŀĪìľ¼ëĭĪ": 5265,
      "Ġì¶©ëĤ¨": 5266,
      "Ġì¹Ń": 5267,
      "Ġìłľìĸ´ë¶Ģ": 5268,
      "Ġëħ¸ì¡°": 5269,
      "Ġë¹ĦëĮĢ": 5270,
      "Ġë¯¼ì£¼ì£¼ìĿĺ": 5271,
      "Ġë³´ìĹ¬ì£¼": 5272,
      "Ġì§ĳíļĮ": 5273,
      "ĠíıĲìĩĦ": 5274,
      "ìĸ´ëĸ¤": 5275,
      "Ġíı¬ìŀ¥": 5276,
      "íı¬ë¥´": 5277,
      "Ġì»¤ë²Ħ": 5278,
      "ìĺģìŀ¥": 5279,
      "Ġê·¼ë¡ľìŀĲ": 5280,
      "Ġë°ĶìĿ´ìĺ¤": 5281,
      "ĠëĪĦê°Ģ": 5282,
      "ìĥĿëĵ¤": 5283,
      "Ġê°ľìŀħ": 5284,
      "ĠìĥģíĻ©ìĿ´ëĭ¤": 5285,
      "ì¶ķìłľ": 5286,
      "Ġì¶©ë¶ģ": 5287,
      "ìĿ¼ê°Ħ": 5288,
      "ĠìĿ´ê°ĻìĿ´": 5289,
      "54": 5290,
      "ĠìŀĪìĹĪê³ł": 5291,
      "ĠëĽ°ìĸ´ëĤľ": 5292,
      "Ġíı¬íķ¨íķ´": 5293,
      "ê³µìĹħ": 5294,
      "íĪ": 5295,
      "Ġì²¨ê°Ģ": 5296,
      "íĨ¨": 5297,
      "Ġì¶ķìĨĮ": 5298,
      "ĠìĦłìŀĦ": 5299,
      "ĠìĦ±ìĿ¸": 5300,
      "ìĿ´ìĹĲìļĶ": 5301,
      "ĠìķłëĭĪ": 5302,
      "ë¬´ìĹŃ": 5303,
      "ìĸ´ë²Ħ": 5304,
      "êµŃíļĮ": 5305,
      "ĠíĮĮìĽĮ": 5306,
      "íķĺëĭĪ": 5307,
      "Ġê°ľìłķìķĪ": 5308,
      "Ġëĸ¨ìĸ´ì§Ħ": 5309,
      "Ġê³µìķ½": 5310,
      "Ġë²ķìłķ": 5311,
      "¼Ī": 5312,
      "ì¡ĮìĬµëĭĪëĭ¤": 5313,
      "ĠëĬ¥": 5314,
      "ë´Ħ": 5315,
      "êµ¬ìĦ±": 5316,
      "ĠìĤ¬ìłķ": 5317,
      "íĺ¸íħĶ": 5318,
      "Ġê¸°íĽĦ": 5319,
      "Ġìĺģíĸ¥ëł¥": 5320,
      "ë´¤ëĭ¤": 5321,
      "Ġê¸¸ìĿ´": 5322,
      "ìĤ¬ìļ©ìŀĲ": 5323,
      "Ġìĭ¤ë¬´": 5324,
      "ĠìĹ¬ìľł": 5325,
      "Ġëª»íķł": 5326,
      "Ġíķ´ìłľ": 5327,
      "ìĭ¤ìĭľìĺĪ": 5328,
      "ĠìļĶê¸Ī": 5329,
      "Ġê°ĢìĿĦ": 5330,
      "ĠìŀĪìĹĪìĬµëĭĪëĭ¤": 5331,
      "ë§Īì§Ģë§ī": 5332,
      "ĠìľłëĭĪ": 5333,
      "ĠìĹĦì²ŃëĤľ": 5334,
      "íķ´ìļĶ": 5335,
      "ĠìĹ¬ìķ¼": 5336,
      "ĠíĻĶìłľ": 5337,
      "ĠìĪĺì§ģ": 5338,
      "Ġì¡°ìĸ¸": 5339,
      "ìĹĪìĿĦ": 5340,
      "ĠìĪĺíķĻ": 5341,
      "Ġë¶ĦìĤ°": 5342,
      "Ġì§Ģìĥģ": 5343,
      "ì¦Ĳ": 5344,
      "ëŀ©": 5345,
      "ìĽĮì§Ģ": 5346,
      "Ġìĭ¤ìĪĺ": 5347,
      "ĠëĤĺëĪł": 5348,
      "ĠìĪľìľĦ": 5349,
      "Ġë¨¸ë¬¼": 5350,
      "ĠíĺĳìĹħ": 5351,
      "ĠìĭĿëĭ¹": 5352,
      "Ġëª¨ë¥´ëĬĶ": 5353,
      "íĪ¬íĳľ": 5354,
      "ì§ĢìļĶ": 5355,
      "ë¦¬ì½ĺ": 5356,
      "ĠëĪĦìłģ": 5357,
      "ĠêµĲíĻĺ": 5358,
      "ĠëĤ¨ìĿĢ": 5359,
      "ĠìĬ¤íĥĢíĬ¸ìĹħ": 5360,
      "Ġê±¸ìĸ´": 5361,
      "Ġìĭłì¢ħ": 5362,
      "ëįĶëĿ¼êµ¬ìļĶ": 5363,
      "ìĿ´ìłĦ": 5364,
      "ĠëĪĪê¸¸": 5365,
      "Ġíļ¨ê³¼ìłģ": 5366,
      "ĠìĤ¬ê¸°": 5367,
      "Ġì¤Ģëĭ¤": 5368,
      "ĠìłĲìĪĺ": 5369,
      "íĨ±": 5370,
      "ĠìŀĪìľ¼ë¯Ģë¡ľ": 5371,
      "ëĶĺ": 5372,
      "ĠìłģìĿĢ": 5373,
      "Ġëĥīê°ģ": 5374,
      "ĠìĭĿë¬¼": 5375,
      "ĠíķŃëª©": 5376,
      "ìĹŃìĤ¬": 5377,
      "íķĺëł¤ë©´": 5378,
      "ìĿĺìŀĲ": 5379,
      "ãĤ": 5380,
      "ĠìĿ´ìĬ¤": 5381,
      "ĠìľłëıĻ": 5382,
      "ìľ¼ë¡ľ": 5383,
      "Ġê³µíķŃ": 5384,
      "ĠìŀĦìĿĺ": 5385,
      "ëĭ¤ëĭĪ": 5386,
      "ìĭłê³ł": 5387,
      "íĢ´": 5388,
      "ìłĦì§Ģ": 5389,
      "ĠëĬĺìĹĪëĭ¤": 5390,
      "ë¥Ń": 5391,
      "ĠíıĲê¸°": 5392,
      "Ġë³Ħë¡ľ": 5393,
      "Ġëª¨ìŀĦ": 5394,
      "Ġëĭ¨ìĪľíŀĪ": 5395,
      "ĠìĦłë°ķ": 5396,
      "Ġë¶Īë§Į": 5397,
      "Ġíķ¸": 5398,
      "Ġë´īìĤ¬": 5399,
      "ĠìĿĺíļĮ": 5400,
      "íĮĲìĤ¬": 5401,
      "ĠìĥĪë²½": 5402,
      "ëłĪìĿ´íĬ¸": 5403,
      "ĠíıīìĥĿ": 5404,
      "ë¶Ħëĵ¤": 5405,
      "72": 5406,
      "ĠíĺĦê¸Ī": 5407,
      "Ġë§ģíģ¬": 5408,
      "ìĹĲëıĦ": 5409,
      "Ġê·¸ëŀĺëıĦ": 5410,
      "ìħĶìĦľ": 5411,
      "ĠìĹ°ë£Į": 5412,
      "ìĩ¼íķĳ": 5413,
      "ĠìĨĮìŀĲ": 5414,
      "ìķĦëĭĪ": 5415,
      "ê°ĢìļĶ": 5416,
      "Ġì¤Ħìĸ´": 5417,
      "ĠìľĦìĽĲíļĮ": 5418,
      "ĠíĶĦë¦¬ë¯¸ìĹĦ": 5419,
      "Ġìłģê·¹ìłģìĿ¸": 5420,
      "ë¥´ì§Ģ": 5421,
      "ĠëıĻìĽĲ": 5422,
      "ĠìłĦê³µ": 5423,
      "ê³µê¸ī": 5424,
      "ìĺĪìĤ°": 5425,
      "Ġë¶Īë¦¬ëĬĶ": 5426,
      "ĠìķĬìĿĦê¹Į": 5427,
      "Ġë³´ìĻĦ": 5428,
      "ìĿ´ìĹĪìĬµëĭĪëĭ¤": 5429,
      "Ġì¦Ŀëªħ": 5430,
      "ë©Ķíĭ¸": 5431,
      "Ġë°ľê´ĳ": 5432,
      "Ġë¬¼ë¦¬": 5433,
      "Ġê²½ëł¥": 5434,
      "ì§Ģë©°": 5435,
      "ëĬĶê°Ģ": 5436,
      "ì§ģìŀĲ": 5437,
      "190": 5438,
      "Ġì§Ģíľĺ": 5439,
      "êµĲìĤ¬": 5440,
      "ĠìĨĮìħľ": 5441,
      "ĠìłĢì§Ģ": 5442,
      "ê°ľìĦł": 5443,
      "Ġì§Ħë£Į": 5444,
      "ĠìĬ¤íİĺìĿ¸": 5445,
      "ê¸°ì¡´": 5446,
      "Ġë³¸ì²´": 5447,
      "Ġê¸°ëıħêµĲ": 5448,
      "ìĨĮíķľ": 5449,
      "ĠìĪ«ìŀĲ": 5450,
      "ĠìķĦë¥´": 5451,
      "ë¬´ê¸°": 5452,
      "Ġì¤ĳìļĶìĦ±": 5453,
      "Ġë°ĽëĬĶëĭ¤": 5454,
      "ë¦ĩ": 5455,
      "ĠìĦłëıĦ": 5456,
      "Ġëĭ¨ë°±ì§Ī": 5457,
      "ìĹ¬ëŁ¬": 5458,
      "Ġê°Ķ": 5459,
      "Ġë¶Ģì§Ģ": 5460,
      "ĠìĿĺë¬¸": 5461,
      "ë°¤": 5462,
      "Ġìĺ¤ìĹ¼": 5463,
      "Ġì»¤ë®¤ëĭĪíĭ°": 5464,
      "ëĵľë¡ľ": 5465,
      "ĠìĿĺíŀĺ": 5466,
      "Î¼": 5467,
      "ë¶Ģìŀ¥ê´Ģ": 5468,
      "Ġìľłìļ©": 5469,
      "ëŀŃ": 5470,
      "ë°Ķë¥¸": 5471,
      "68": 5472,
      "ĠìĦ¸ê³Ħìłģ": 5473,
      "ìķĦë²Ħì§Ģ": 5474,
      "Ġë§ŀì¶¤íĺķ": 5475,
      "Ġê±°ì§ĵ": 5476,
      "íĺķíĥľ": 5477,
      "ĠìĿ´ìĤ¬ìŀ¥": 5478,
      "ìĭľíĤ¨ëĭ¤": 5479,
      "Ġë§Ľì§ĳ": 5480,
      "ìĿ´ëĭĪ": 5481,
      "ĠëıĦìĭľíķľ": 5482,
      "ê³µíķĻ": 5483,
      "ìĿĮìķħ": 5484,
      "ìĿĺìŀ¥": 5485,
      "ì²ĺìĿĮ": 5486,
      "ĠìĿ´ìļ©íķĺëĬĶ": 5487,
      "ĠìĿ´ì¤ĳ": 5488,
      "Ġíĺ¸íĿ¡": 5489,
      "Ġíķ©ìĦ±": 5490,
      "ë¥¨": 5491,
      "ë°¸": 5492,
      "112": 5493,
      "íķ´ë³´": 5494,
      "Ġë°©íķ´": 5495,
      "Ġì¢ĭìĿĦ": 5496,
      "ëłĪê¸°": 5497,
      "ĠìĿ¼ìĿ´ëĭ¤": 5498,
      "ë¦ŃìĬ¤": 5499,
      "ĠìĹħëį°ìĿ´íĬ¸": 5500,
      "íħĮìĿ¸": 5501,
      "ìŀĲì¹ĺëĭ¨ì²´": 5502,
      "Ġì´Īì²Ń": 5503,
      "ĠíŀĲ": 5504,
      "Ġì¶©ë¶Ħíķľ": 5505,
      "Ġì§ĢìĹ°": 5506,
      "101": 5507,
      "Ġë¹ĦìłĦ": 5508,
      "ëłĢ": 5509,
      "ĠëĤłìĶ¨": 5510,
      "Ġë§Īì£¼": 5511,
      "ìĪľìľĦ": 5512,
      "Ġì§Ħìłķ": 5513,
      "ĠíĿĺëŁ¬": 5514,
      "ê¸Īìķ¡": 5515,
      "Ġíĺ¼ëŀĢ": 5516,
      "Ġì¢ĭì§Ģ": 5517,
      "íķ´ìł¸": 5518,
      "Ġì¦īìĭľ": 5519,
      "Ġê³łìľł": 5520,
      "Ġìŀ¬ê°ľ": 5521,
      "ĠìĭľíĬ¸": 5522,
      "ĠìĭĿë³Ħ": 5523,
      "Ġíĺĳì¡°": 5524,
      "ĠìĦłì§Ħ": 5525,
      "Ġìķ¨ë²Ķ": 5526,
      "ĠìłģìĿĳ": 5527,
      "Ġíİ¸ìķĪ": 5528,
      "ĠìĹ°ë§Ĳ": 5529,
      "Ġì£¼ìĨĮ": 5530,
      "Ġê°Ħëĭ¨íķľ": 5531,
      "Ġíĺ¸ì£¼": 5532,
      "ĠìĽĥìĿĮ": 5533,
      "ì²ĺë¶Ħ": 5534,
      "ìĿ´ëĵł": 5535,
      "ìĿ¸ê¶Į": 5536,
      "Ġì§ĦìĪł": 5537,
      "Ġì§ĢìĨįìłģìĿ¸": 5538,
      "ìĬ¤íĤ¤": 5539,
      "ĠëıĮëł¤": 5540,
      "ë°ķìĬ¤": 5541,
      "Ġì¶ľìŀħ": 5542,
      "64": 5543,
      "ĠìłķìĥģíļĮëĭ´": 5544,
      "ê»ı": 5545,
      "Ġíĥģ": 5546,
      "ĠìĿ´ë£¨ìĸ´ì§Ħ": 5547,
      "ë¥´íĬ¸": 5548,
      "Ġì»¬ëŁ¬": 5549,
      "ĠìľĪ": 5550,
      "193": 5551,
      "íİĻ": 5552,
      "Ġê°Ģì§ĢëĬĶ": 5553,
      "95": 5554,
      "Ġì¶©ì¡±": 5555,
      "ĠëĨįëıĦ": 5556,
      "Ġëĭ´ìķĦ": 5557,
      "ìĿ¸ëł¥": 5558,
      "Ġë²ĦìłĦ": 5559,
      "Ġë°Ľê²Į": 5560,
      "Ġê°ĲëıĻ": 5561,
      "ì°¨ëŁī": 5562,
      "ĠìĹ°ìĬµ": 5563,
      "íģ°": 5564,
      "ĠëĤ´ìĦ¸": 5565,
      "ì²ľìĭľ": 5566,
      "íıīê·ł": 5567,
      "íĬ¸ë¡¤": 5568,
      "Ġì°½ìĿĺ": 5569,
      "ĠíĶĦë¡ľìĦ¸ìĬ¤": 5570,
      "íķłì§Ģ": 5571,
      "ĠíĶ½": 5572,
      "ĠìĽ¹ìĤ¬ìĿ´íĬ¸": 5573,
      "ìĹ¬ìķ¼": 5574,
      "ĠìĤ¬ìķĪ": 5575,
      "Ġì£¼íĸī": 5576,
      "ĠëĮĢë§Į": 5577,
      "ĠìĿĺëĭ¹": 5578,
      "Ġì´ĪìłĲ": 5579,
      "Ġì¦Ŀê°ĢíĸĪëĭ¤": 5580,
      "ë§Īì¼ĵ": 5581,
      "Ġíķľë¯¸": 5582,
      "ìĹ°íŀĪ": 5583,
      "ĠëłĪë²¨": 5584,
      "ĠëıħìŀĲ": 5585,
      "ëĲĺê²Į": 5586,
      "ì½ĶìĬ¤": 5587,
      "ĠëĲľëĭ¤ëĬĶ": 5588,
      "ĠëĤ®ìķĦ": 5589,
      "ĠìŀĦìĥģ": 5590,
      "ìĭľìłģ": 5591,
      "íĬ¸ëĿ¼": 5592,
      "Ġë¹ĦëĶĶìĺ¤": 5593,
      "êµĲìĪĺ": 5594,
      "ë°Ľìķĺëĭ¤": 5595,
      "ìķĹ": 5596,
      "íķĺìļ°": 5597,
      "ĠíĴĢìĸ´": 5598,
      "Ġë¶ģë¯¸": 5599,
      "ë§Īë¦¬": 5600,
      "ĠìĬ¤íĶ¼": 5601,
      "ë²¼": 5602,
      "ĻëĭĪëĭ¤": 5603,
      "Ġì§ķê³Ħ": 5604,
      "ìĪĺíķľ": 5605,
      "Ġëĸłìĺ¤": 5606,
      "ĠëĤŃ": 5607,
      "ìĥģëĭ´": 5608,
      "^^Ċ": 5609,
      "ê²½ìŁģ": 5610,
      "áħ²áħ²": 5611,
      "Ġê³łê¸°": 5612,
      "Ġê¸°ì§Ģ": 5613,
      "Ġì§Ģë¶Ħ": 5614,
      "Ġëª¨íĦ°": 5615,
      "íķ´ëĭ¹": 5616,
      "Ġëļľ": 5617,
      "Ġë©´ìĹŃ": 5618,
      "ĠíĥĢê²©": 5619,
      "ë³´ëĵľ": 5620,
      "Ġìĸ»ìĸ´": 5621,
      "Ġìķ¼êµ¬": 5622,
      "ëįľ": 5623,
      "Ġì§§ìĿĢ": 5624,
      "Ġê³¼ìĹ°": 5625,
      "ìķĪë³´": 5626,
      "62": 5627,
      "ĠíĻĶëł¤": 5628,
      "ìĸ´ë¦°": 5629,
      "Ġíķłë¨¸ëĭĪ": 5630,
      "Ġê°¤ëŁŃìĭľ": 5631,
      "Ġì£¼ëł¥": 5632,
      "Ġìĥģìŀ¥": 5633,
      "Ġëĭ¹ìŀ¥": 5634,
      "ĮíĶĦ": 5635,
      "61": 5636,
      "ĠíħĲ": 5637,
      "Ġìĭ¬ìŀ¥": 5638,
      "Ġíķĺê²łëĭ¤": 5639,
      "Ġë°°ìłľ": 5640,
      "ìłĦì²´": 5641,
      "ìĤ°ìĭľ": 5642,
      "íķ´ì§Ī": 5643,
      "íİĢëĵľ": 5644,
      "ìĿ´ê²Į": 5645,
      "Ġíķĺëĵľ": 5646,
      "ë©Ķëĭ¬": 5647,
      "ĠëķĮë¬¸ìŀħëĭĪëĭ¤": 5648,
      "ĠìĪ²": 5649,
      "ëħķíķĺìĦ¸ìļĶ": 5650,
      "Ġì°¾ê¸°": 5651,
      "ĠìŀħìŀĲ": 5652,
      "Ġìłľìķ½": 5653,
      "Ġì±ĶíĶ¼ìĸ¸": 5654,
      "ìľĦì¹ĺ": 5655,
      "ì²ŃìĨĮëħĦ": 5656,
      "ë¨¸ë¦¬": 5657,
      "ì§Ģì»¬": 5658,
      "ĠíħĮëŁ¬": 5659,
      "ìłķëĭ¹": 5660,
      "ĠëĬĺìĸ´ëĤľ": 5661,
      "âĶģâĶģâĶģâĶģ": 5662,
      "Ġê°ľë§ī": 5663,
      "Ġê°ĢìĹ´": 5664,
      "Ġë¶Ħëħ¸": 5665,
      "Ġë³´ê¸ī": 5666,
      "Ġë¶Ģì¡±íķľ": 5667,
      "ìĨĮìĨ¡": 5668,
      "Ġìŀī": 5669,
      "ĠëĤ¼": 5670,
      "Ġíĳľìłķ": 5671,
      "ĠìĿĺë¯¸íķľëĭ¤": 5672,
      "Ġê²°ì½Ķ": 5673,
      "ĠìĿĺê²°": 5674,
      "ìŀ¥ìķłìĿ¸": 5675,
      "ìĺģêµŃ": 5676,
      "Ġìµľìĭł": 5677,
      "ĠìĤ¬ë¬´ìĭ¤": 5678,
      "ìĿĺëıĦ": 5679,
      "ëĭ¹ìĭł": 5680,
      "Ġì§Ħë³´": 5681,
      "Ġê°ģìŀĲ": 5682,
      "ë°©ì§Ģ": 5683,
      "Ġë°Ľê¸°": 5684,
      "íĶĶ": 5685,
      "Ġíģ´ëŀĺ": 5686,
      "Ġê±´ë¦½": 5687,
      "Ġê·¸ëŁ¬íķľ": 5688,
      "Ġë©Ģíĭ°": 5689,
      "Ġìŀ¡ê³ł": 5690,
      "ë´Ĳìķ¼": 5691,
      "ìŀĲìĹ°": 5692,
      "ì¡Įê³ł": 5693,
      "Ġê´Ģê°Ŀ": 5694,
      "Ġë¬´ê²Į": 5695,
      "ëĦĪë¬´": 5696,
      "ë°ĶëŀĮ": 5697,
      "Ġìĺ®ê²¨": 5698,
      "ĠëĮĢëĭ¨": 5699,
      "84": 5700,
      "85": 5701,
      "ìĹ¬ìĦľ": 5702,
      "íĶĦë¦¬": 5703,
      "íĥĢë¯¼": 5704,
      "ĠìĹ°êµ¬ìĽĲ": 5705,
      "ĠíĨµì¦Ŀ": 5706,
      "Ġëª»íķ´": 5707,
      "Ġì§ĦíĸīëĲľëĭ¤": 5708,
      "ë¦¬ë©´": 5709,
      "Ġíķ´ìĥģ": 5710,
      "ĠìĦ¸ë¶Ģ": 5711,
      "±íģ¬": 5712,
      "íģ¬ë¦´": 5713,
      "Ġì¹ĺìĹ´": 5714,
      "192": 5715,
      "ĠíħĮìĿ´ë¸Ķ": 5716,
      "ëģĹ": 5717,
      "111": 5718,
      "ì¹ĺê¸°": 5719,
      "ĠìłĦíĮĮ": 5720,
      "Ġëĭ¨ë©´": 5721,
      "ĠìĿĺíķĺë©´": 5722,
      "ĠìĤ¬ìĹħìŀĲ": 5723,
      "ĠìĥģìŀĦ": 5724,
      "ĠìŀĲì¹ĺ": 5725,
      "Ġë©´ìłģ": 5726,
      "ĠëģĬìŀĦ": 5727,
      "ĠìĹĨì§Ģë§Į": 5728,
      "Ġì§Ħíĸīíķľëĭ¤": 5729,
      "Ġê°ķëıĦ": 5730,
      "íĻĺìŀĲ": 5731,
      "âĸ²": 5732,
      "Ġë¶Ģìŀ¥": 5733,
      "ì§ĢëĮĢ": 5734,
      "Ġë·": 5735,
      "Ġë¬¼ìĸ´": 5736,
      "Ġì·¨ìŀ¬": 5737,
      "ĠëĮĢíıŃ": 5738,
      "Ġê³¼ëıĦ": 5739,
      "ìĹĪìĸ´ìļĶ": 5740,
      "ì¹´ìĿ´": 5741,
      "ĠìłĦíķ´ì¡Įëĭ¤": 5742,
      "ìĭ¤íĹĺ": 5743,
      "ĠìĥĿë¬¼": 5744,
      "Ġíİľ": 5745,
      "ê³¼ìŀ¥": 5746,
      "Ġê·¼ì²ĺ": 5747,
      "ìħ¨ëĭ¤": 5748,
      "ĠíĨµë³´": 5749,
      "Ġì§Ħíĸīíķĺê³ł": 5750,
      "ìłĪì°¨": 5751,
      "Ġìłĳì¢ħ": 5752,
      "Ġê°Ģê³ł": 5753,
      "ìļ°ë¦¬ëĤĺëĿ¼": 5754,
      "ĠëĵľëĿ¼ìĿ´": 5755,
      "Ġë¬¸íķĻ": 5756,
      "Ġì´ĪëĮĢ": 5757,
      "ĠìĨ¡ìĭł": 5758,
      "Ġê°Ķëĭ¤": 5759,
      "Ġë¹ĦêµĲìłģ": 5760,
      "Ġë¶ķ": 5761,
      "Ġì£¼íĮĮìĪĺ": 5762,
      "ìĽĲìŀ¥": 5763,
      "Ġê°ĢëĬ¥íķĺê²Į": 5764,
      "102": 5765,
      "íĺĦìĭ¤": 5766,
      "ìĪĺì§Ģ": 5767,
      "Ġê²ĥìĿ´ìĹĪëĭ¤": 5768,
      "Ġì±Ħê¶Į": 5769,
      "Ġë²ĪìĹŃ": 5770,
      "Ġìķķì¶ķ": 5771,
      "ĠáĦĴáĦĴ": 5772,
      "ĠêµŃëĤ´ìĻ¸": 5773,
      "ë¯¸ìĪł": 5774,
      "ê²©íķľ": 5775,
      "ìĹ°ëĮĢ": 5776,
      "Ġê³µê³µê¸°ê´Ģ": 5777,
      "íģ¬ëĿ¼": 5778,
      "ĠíĬ¸ìľĦíĦ°": 5779,
      "ķìĭľ": 5780,
      "77": 5781,
      "Ġìŀħê³ł": 5782,
      "Ġë§ĮëĤ¨": 5783,
      "ĠìĬ¤íĨł": 5784,
      "ìŀ¬ìĥĿ": 5785,
      "Ġìŀħë²ķ": 5786,
      "ĠìĪĺë¹Ħ": 5787,
      "Ġì¡°ë¦½": 5788,
      "ì½Ķëĵľ": 5789,
      "íķ´ì£¼ëĬĶ": 5790,
      "ê³µë¬´ìĽĲ": 5791,
      "íĸĪìĸ´ìļĶ": 5792,
      "Ġë¬µ": 5793,
      "Ġìŀħì¦Ŀ": 5794,
      "ĠìłĦê¸°ì°¨": 5795,
      "Ġì°¾ìĿĦ": 5796,
      "ĠìĤ¬ìļ©íķľ": 5797,
      "ĠìĮĢ": 5798,
      "Ġì½Ķë¡ľëĤĺë°ĶìĿ´ëŁ¬ìĬ¤": 5799,
      "ë¦¬íĭ°": 5800,
      "Ġê°Ģì¡±ëĵ¤": 5801,
      "íķ´ìĺ¨": 5802,
      "ìļĶíķľ": 5803,
      "ĠíĽĦê¸°": 5804,
      "ìĬ¤ë§ĪíĬ¸": 5805,
      "ìĭ±íĦ´": 5806,
      "Ġì¶ľìĦĿ": 5807,
      "ìĺ¤íĶĦ": 5808,
      "íĬ¸ëŁ¼íĶĦ": 5809,
      "íķ´ì§ĢëĬĶ": 5810,
      "ĠëĮĵê¸Ģ": 5811,
      "ê¸°ê¸Ī": 5812,
      "ĠìĿ´ë¥¸ë°Ķ": 5813,
      "ĠâĶĥ": 5814,
      "ĠìĦłìĥĿëĭĺ": 5815,
      "ĠìĪľìĦľ": 5816,
      "ĠíĥĦíķµ": 5817,
      "ìķ¼êµ¬": 5818,
      "Ġê°Ģê²Į": 5819,
      "ĠëĮĢë¦¬": 5820,
      "Ġê°Ĳìĭľ": 5821,
      "191": 5822,
      "ëĲĲëĭ¤ê³ł": 5823,
      "ĠìŀĦê¸°": 5824,
      "Ġëĭ¤ë¥´ê²Į": 5825,
      "ì²´íĹĺ": 5826,
      "íħĮìĿ¸ë¨¼íĬ¸": 5827,
      "ĠëĦ£ìĸ´": 5828,
      "ĠìĦ±íĺķ": 5829,
      "Ġë³´ëĤ¸": 5830,
      "ìĭľìĬ¤": 5831,
      "ĠìŀħíķĻ": 5832,
      "ĠìĦľë¥ĺ": 5833,
      "Ġìį": 5834,
      "Ġê·¼ìľ¡": 5835,
      "ì¤įëĭĪëĭ¤": 5836,
      "ê°Ģìŀ¥": 5837,
      "Ġë°Ķê¿Ķ": 5838,
      "ĠìĦľë¸Į": 5839,
      "ĠëĮĢëĭµ": 5840,
      "ë´īìĤ¬": 5841,
      "ĠìłĢíķĺ": 5842,
      "Ġë§ĪìĿ´": 5843,
      "Ġìłķì°©": 5844,
      "íķĺëĭ¤ê°Ģ": 5845,
      "Ġìĥģëĭ¹íķľ": 5846,
      "Ġë²ķë¬´ë¶Ģ": 5847,
      "íĥĲ": 5848,
      "ĠíĺĦíĻ©": 5849,
      "ĠíĽĮë¥Ń": 5850,
      "ìĦ¤íĮħ": 5851,
      "ĠìŀĩëĶ°": 5852,
      "ìľ¼ëĭĪê¹Į": 5853,
      "Ġìļ©ìĿ´": 5854,
      "ĠìķĦëĭĮê°Ģ": 5855,
      "ìķĦë¦¬": 5856,
      "Ġì°¸ìĦĿíķľ": 5857,
      "Ġê¸īì¦Ŀ": 5858,
      "ĠìĨĮìŀ¥": 5859,
      "ĠìĪĺìĭŃ": 5860,
      "ëłĽ": 5861,
      "ĠìĽĲíĻľ": 5862,
      "ìĦ°": 5863,
      "ëĭ¬ëĿ¼": 5864,
      "íķĺìĺĢìľ¼ë©°": 5865,
      "ìĬ¤íĥĦ": 5866,
      "ë§Īíģ¬": 5867,
      "ĠìĤ´ìĿ¸": 5868,
      "ìķĦì§ģ": 5869,
      "ê´ĳìĹŃìĭľ": 5870,
      "Ġê·¸ëłĩì§Ģ": 5871,
      "Ġê±´ê°ķíķľ": 5872,
      "Ġë²łìĿ´ìĬ¤": 5873,
      "Ġì²¨ëĭ¨": 5874,
      "Ġíħį": 5875,
      "Ġë³ĢëıĻ": 5876,
      "ê°ĢëŁī": 5877,
      "ëŁ°ìĬ¤": 5878,
      "ìĸĢ": 5879,
      "Ġë¶ĢëĮĢ": 5880,
      "Ġëĭ´ê¸´": 5881,
      "ĠìĭľìŀĳëĲľ": 5882,
      "ĠíķľêµŃìĿ¸": 5883,
      "ĠíĥĢìĿ¸": 5884,
      "ĠìķĬì§Ģë§Į": 5885,
      "ĠìĤ¬ë²ķ": 5886,
      "ëħ¹": 5887,
      "íķĻìĬµ": 5888,
      "ìĹ°ë§¹": 5889,
      "Ġë©´ìĦľ": 5890,
      "ë¯¸ëħ¸": 5891,
      "Ġëª¨ëĭĪíĦ°ë§ģ": 5892,
      "êµ°ìļĶ": 5893,
      "íĺĶëĭ¤": 5894,
      "ĠíķľíĻĶ": 5895,
      "Ġê³łë°ľ": 5896,
      "ĠìĿ´íĭĢ": 5897,
      "ëĲĲê³ł": 5898,
      "ìŀ¥ë¹Ħ": 5899,
      "ĠíļĮëĭ´": 5900,
      "Ġê³µì¤ĳ": 5901,
      "ì¹ľëĭ¤": 5902,
      "ĠìĹ°ëł¹": 5903,
      "ĠêµĲê³¼": 5904,
      "ĠíĻĶìĥģ": 5905,
      "ìĺ¤ê³ł": 5906,
      "ĠìĹ°ë°©": 5907,
      "ĠíĮ¨íĤ¤ì§Ģ": 5908,
      "Ġìłľì£¼ëıĦ": 5909,
      "íıīíĻĶ": 5910,
      "ĠíķĺëįĶëĿ¼ëıĦ": 5911,
      "Ġì¡´ì¤ĳ": 5912,
      "Ġëĵ±ìĿ´ëĭ¤": 5913,
      "ĠìĦ±ëªħ": 5914,
      "ĠìĹ´ìłķ": 5915,
      "ê·¸ëłĩê²Į": 5916,
      "ìĤ¬ìĿ¸": 5917,
      "ì¹´íİĺ": 5918,
      "Ġìĺµ": 5919,
      "Ġëª¨ìĥī": 5920,
      "ì£¼íĸī": 5921,
      "ë¦¬ìŀĲ": 5922,
      "Ġë§¹": 5923,
      "67": 5924,
      "Ġê³µíĻĶ": 5925,
      "Ġì§ģìłĦ": 5926,
      "Ġê´ĢíĨµ": 5927,
      "Ġë§ŀê²Į": 5928,
      "Ġë¶Ģì§Ħ": 5929,
      "Ġë¬´ëĦĪ": 5930,
      "ĠìĿ´ê²Į": 5931,
      "Ġì§ĢëĭĮ": 5932,
      "Ġëª¨ë¥¸ëĭ¤": 5933,
      "Ġì§Ģì§Ħ": 5934,
      "Ġì½ĶíĮħ": 5935,
      "ëłģ": 5936,
      "Ġìĥĺ": 5937,
      "Ġì§ĢìĹŃìĤ¬íļĮ": 5938,
      "ĠëĤĺì¤ĳ": 5939,
      "Ġê²ªê³ł": 5940,
      "ìł¸ìķ¼": 5941,
      "Ġì¤ĢìĪĺ": 5942,
      "Ġë¯¸ìĦ¸ë¨¼ì§Ģ": 5943,
      "Ġìĭłë¶Ħ": 5944,
      "ĠíĻľìļ©íķł": 5945,
      "ĠìķĦíĶĦë¦¬ì¹´": 5946,
      "ê·¸ëıĻìķĪ": 5947,
      "Ġìķ¤": 5948,
      "Ġìĭľë²Ķ": 5949,
      "ĠìĿ´ìŀĲ": 5950,
      "ì²łëıĦ": 5951,
      "ĠìĨĮìĪĺ": 5952,
      "Ġë§Īë¦¬": 5953,
      "ê³łë¦¬": 5954,
      "ë°ĶìĿ´ìĺ¤": 5955,
      "ĠìłĦìĦ¸ê³Ħ": 5956,
      "Ġì§Ħìłķíķľ": 5957,
      "Ġìłķì§Ģ": 5958,
      "Ġê³łëł¤íķ´": 5959,
      "230": 5960,
      "Ġì£¼ìµľ": 5961,
      "Ġëħ¼ë¦¬": 5962,
      "Ġë³¸ì§Ī": 5963,
      "ĠíİĢëĵľ": 5964,
      "ĠìĥĿê²¨": 5965,
      "ĠìķĦìĺĪ": 5966,
      "Ġë±": 5967,
      "ĠìĿ´ëķĮ": 5968,
      "ìĨĮíĶĦíĬ¸": 5969,
      "ĠíĬ¸ëłĮëĵľ": 5970,
      "ĠìĬ¹ë¶Ģ": 5971,
      "ĠìĿ¼ìłľ": 5972,
      "Ġë§¤ê°ģ": 5973,
      "ĠëŃĶê°Ģ": 5974,
      "ìĿ´ìķ¼": 5975,
      "ë¬¸íļĮ": 5976,
      "Ġìĥģíĥľëĭ¤": 5977,
      "ĠíĻķë¥ł": 5978,
      "Ġë¶ĦìŁģ": 5979,
      "Ġê¹Ģìĺģ": 5980,
      "íħĶëłĪ": 5981,
      "ĠìĻĢìĦľ": 5982,
      "ĠìĺĪìĪĺ": 5983,
      "íķ´ì§Ģê³ł": 5984,
      "ĠëıĮì¶ľ": 5985,
      "¨ëĭ¤": 5986,
      "Ġì²ŃìĨĮ": 5987,
      "ìĥĿë¬¼": 5988,
      "ìĿ´ì£ł": 5989,
      "Ġë³¸ìĤ¬": 5990,
      "íķĻê³¼": 5991,
      "ĠìłķìĭĿ": 5992,
      "ĠìĨĮëħĢ": 5993,
      "íķĺìļ°ìĬ¤": 5994,
      "ĠìłĦë¥ĺ": 5995,
      "ĠìķĬìķĦëıĦ": 5996,
      "ĠíĬĢ": 5997,
      "Ġì¢ħëŀĺ": 5998,
      "ĠìĦ±íĸ¥": 5999,
      "Ġì¼ĢìĿ´ìĬ¤": 6000,
      "Ġëŀľ": 6001,
      "Ġì¡´ìŀ¬íķĺëĬĶ": 6002,
      "ê³¼ê±°": 6003,
      "Ġë¶ĢìĦľ": 6004,
      "ĠëıĮìķĦê°Ģ": 6005,
      "ì¤Ģë¹Ħ": 6006,
      "ĠìĦ¬ìľł": 6007,
      "Ġì¹ł": 6008,
      "ëħ¸ì¡°": 6009,
      "ìĿ¼ë¦¬": 6010,
      "ĠíĬ¸ë¦¬": 6011,
      "ê¹Ķ": 6012,
      "Ġì¶Ķìłģ": 6013,
      "ĠìĿ¸ìļ©": 6014,
      "ëĵĢ": 6015,
      "Ġê°ķìĽĲëıĦ": 6016,
      "íĺ¸ìĦł": 6017,
      "ĠëıħíĬ¹": 6018,
      "ê²½ë¶ģ": 6019,
      "ìĿ¼ëŁ¬": 6020,
      "Ġíİ¸ìĦ±": 6021,
      "Ġê³µëıĻì²´": 6022,
      "ë§Įìķ½": 6023,
      "ĠìĿ´ìĬ¤ëĿ¼ìĹĺ": 6024,
      "Ġë°Ķë¥¸": 6025,
      "íĹ¬": 6026,
      "Ġìľłë¡ľ": 6027,
      "ì°¨ìĽĲ": 6028,
      "ĠìºĲëĤĺëĭ¤": 6029,
      "Ġê±°ë¡ł": 6030,
      "Ġìļ´ìĺģíķĺê³ł": 6031,
      "ĠìłĪê°Ĳ": 6032,
      "ëĶĶì§ĢíĦ¸": 6033,
      "Ġì²łëıĦ": 6034,
      "Ġê¸°ìĪłìłģ": 6035,
      "ĠìľłìłĢ": 6036,
      "ìĬ¬ëŀĮ": 6037,
      "63": 6038,
      "ĠìľłìĤ¬íķľ": 6039,
      "ìĿĺìĤ¬": 6040,
      "ìĽĮìĦľ": 6041,
      "ĠìĿ¸ìłĳ": 6042,
      "Ġê°Ģë©´": 6043,
      "ìĪĺìĦĿ": 6044,
      "ìĥģê³µìĿ¸": 6045,
      "Ġê´Ģê´ĳê°Ŀ": 6046,
      "ĠìŀĲìķĦ": 6047,
      "ĠìĿ´ë¥´": 6048,
      "Ġë³´ìĿ¸": 6049,
      "ĦìĬ¤": 6050,
      "íĿĺ": 6051,
      "Ġíķ´ì£¼": 6052,
      "Ġì²´ìľ¡": 6053,
      "ë§ĪìŀĲ": 6054,
      "Ġê°Ħê²©": 6055,
      "ĠìĨĮìļĶ": 6056,
      "ëı¼ìķ¼": 6057,
      "ìĺµ": 6058,
      "Ġê³¼íķĻê¸°ìĪł": 6059,
      "ì£¼ì°¨": 6060,
      "íıīìĸĳ": 6061,
      "ĠìĹ¬ìĦ±ëĵ¤": 6062,
      "ìĿ¸ìĤ¬": 6063,
      "ĠìĭŃ": 6064,
      "Ġì¶ĺ": 6065,
      "ì¼Ģìĸ´": 6066,
      "Ġë³´ì¡´": 6067,
      "Ġì£¼ìĿ¸": 6068,
      "ĠìĥĿíĥľê³Ħ": 6069,
      "ĠìĥĿê°ģíķĺê³ł": 6070,
      "Ġì²´íģ¬": 6071,
      "ì²Ńêµ¬": 6072,
      "ë¥ľ": 6073,
      "ëģ¼ë¦¬": 6074,
      "ĠìĥĿëŀµ": 6075,
      "ĠìĦ¤ì¹ĺëĲľ": 6076,
      "Ġìłģíķ©íķľ": 6077,
      "Ġê¸įìłķìłģìĿ¸": 6078,
      "ìļ´ìłĦ": 6079,
      "ĠìĬ¤íĶĦ": 6080,
      "Ġë§Ĳíķł": 6081,
      "íį¼ìĬ¤": 6082,
      "Ġë¹ĦíĮĲíĸĪëĭ¤": 6083,
      "Ġë¿Įë¦¬": 6084,
      "ë²łìĿ´ìĬ¤": 6085,
      "ëĮĢíķľë¯¼êµŃ": 6086,
      "170": 6087,
      "ĠëĦĪë¬´ëĤĺ": 6088,
      "Ġë¶ĦëªħíŀĪ": 6089,
      "ĠìłĲìĿ´ëĭ¤": 6090,
      "ê³½": 6091,
      "Ġì§ĢìľĦ": 6092,
      "ĠìĿ¸íķĺ": 6093,
      "Ġì§ĢìĪĺ": 6094,
      "Ġì¦Ŀê°Ģíķľ": 6095,
      "Ġë³´ì¦Ŀ": 6096,
      "ĠìľĦìķĪ": 6097,
      "ĠìľĦì£¼": 6098,
      "Ġìļ°ìļ¸": 6099,
      "ëıĦìļ°": 6100,
      "ĠìĥĿê°ģíķ©ëĭĪëĭ¤": 6101,
      "ĠëĤ´ë¦°": 6102,
      "ĠìĥģìĹħ": 6103,
      "Ġë°©ë¬¸íķ´": 6104,
      "ĠëıĦëĭ¬": 6105,
      "ĠìĨĮìłķ": 6106,
      "ëķħ": 6107,
      "ĠìĿ¸ìĽĲ": 6108,
      "Ġìľłíļ¨": 6109,
      "ĠíĹĪìľĦ": 6110,
      "ìłĦêµŃ": 6111,
      "Ġê¸°ëĮĢíķľëĭ¤": 6112,
      "ĠìĦŀ": 6113,
      "ĠìĿ¼ë°ĺìłģìĿ¸": 6114,
      "Ġê°ľìĦ¤": 6115,
      "Ġêµ¬ìĦ±ìļĶìĨĮ": 6116,
      "ĠìŀħëĭĪëĭ¤": 6117,
      "ëķĮë¬¸": 6118,
      "ĠëĤĺëħ¸": 6119,
      "Ġëĭ¹ìĹ°íŀĪ": 6120,
      "ë¶Ħê°Ħ": 6121,
      "Ġë¬¼ëŁī": 6122,
      "Ġë§ŀìĿ´": 6123,
      "Ġìļ©ëıĦ": 6124,
      "Ġê·¸ëŁ´": 6125,
      "ĠëĤ´ëĤ´": 6126,
      "ĠìŀĪìĹĪëĬĶëį°": 6127,
      "ëª©ìłģ": 6128,
      "ë§Ĳë¡ľ": 6129,
      "ìĿ´ë©´ìĦľ": 6130,
      "ĠìķĦê¸°": 6131,
      "ì·Ħ": 6132,
      "Ġëĭ¤ë¥´ëĭ¤": 6133,
      "ëĭ¤ìĸĳ": 6134,
      "íĦ°íħĮìĿ¸ë¨¼íĬ¸": 6135,
      "Ġëĵ¯íķľ": 6136,
      "ĠíĪ¬ìĪĺ": 6137,
      "Ġë°ĺìĤ¬": 6138,
      "ĠìĺĪìłĦ": 6139,
      "Ġë°ĶëŀĮì§ģíķľ": 6140,
      "ĠìĿµìĪĻ": 6141,
      "íķ©ì²´": 6142,
      "ĠíķĻë¶Ģëª¨": 6143,
      "ĠìĦ¤ëĵĿ": 6144,
      "ĠìĦłì¶ľ": 6145,
      "ĠìķīìķĦ": 6146,
      "ĠìĬ¤ì¼Ģ": 6147,
      "Ġë¬¶": 6148,
      "ê¶¤": 6149,
      "ĠìľłìĿ¼íķľ": 6150,
      "Ġìĸ´ìłľ": 6151,
      "Ġë³µìĽĲ": 6152,
      "ĠìĿ¸ê°Ģ": 6153,
      "ĠìĤ°ì¶ľ": 6154,
      "ëĵľë¦½ëĭĪëĭ¤": 6155,
      "ìĤ¬ì§Ģ": 6156,
      "íĶ¼ìķĦ": 6157,
      "Ġë¶Ģì²ĺ": 6158,
      "Ġëĵ±ê¸ī": 6159,
      "ê¸Ģë¡ľë²Į": 6160,
      "Ġë¸Ķë¡Ŀì²´ìĿ¸": 6161,
      "Ġì²´íı¬": 6162,
      "ëį°ìļĶ": 6163,
      "ĠëĲĺëĬĶëį°": 6164,
      "ĠìĦľìļ¸ëĮĢ": 6165,
      "ĠìĭľìĤ¬": 6166,
      "ìĪĺìĤ°": 6167,
      "Ġê°ĢëŁī": 6168,
      "ĠìłĲìľł": 6169,
      "ì°¸ìĹ¬": 6170,
      "Ġë²Īíĺ¸": 6171,
      "ë°ķë¬¼ê´Ģ": 6172,
      "ëģĿ": 6173,
      "Ġì¾Į": 6174,
      "ë¹µ": 6175,
      "ìļĶì¦ĺ": 6176,
      "ê°ĢëĬ¥íķľ": 6177,
      "ê³µìĹ°": 6178,
      "ĠëĤ´ìĿ¼": 6179,
      "ĠíĹ¤ëĵľ": 6180,
      "ëĲĲìĬµëĭĪëĭ¤": 6181,
      "ì§ĳëĭĪëĭ¤": 6182,
      "Ġê³łëıĦ": 6183,
      "Ġíķ©ê²©": 6184,
      "ĠíĮĮë¦¬": 6185,
      "Ġì§Ģíķĺì²ł": 6186,
      "íĽ": 6187,
      "êµŃìĿ¸": 6188,
      "ĠíĮĮê²¬": 6189,
      "Ġìľµíķ©": 6190,
      "Ġê·¸ê²Į": 6191,
      "Ġê¶Įê³ł": 6192,
      "Ġë°°ëĭ¬": 6193,
      "ì§ĢìŀĲ": 6194,
      "Ġê¸°ëĮĢëĲľëĭ¤": 6195,
      "ë³¸ë¶Ģìŀ¥": 6196,
      "ì°¾": 6197,
      "Ġê·¸ìłĢ": 6198,
      "ĠìĿ´ëŀĺ": 6199,
      "ĠìłĦì£¼": 6200,
      "ê³Ħì¸µ": 6201,
      "ĠìŀĪìĿĦì§Ģ": 6202,
      "Ġì£¼ìĸ´": 6203,
      "Ġë©ĺ": 6204,
      "Ġìĺ¬ëł¸ëĭ¤": 6205,
      "ĠìļĶêµ¬íķĺëĬĶ": 6206,
      "íĤ¤ëĬĶ": 6207,
      "ĠìŀĲìĦ¸íķľ": 6208,
      "Ġìŀ¬íĻľ": 6209,
      "ĠëĤ¬": 6210,
      "ìĬ¤íĦ´": 6211,
      "ĠìŀĪìĹĪì§Ģë§Į": 6212,
      "ëĤ¨ëıĦ": 6213,
      "Ġëĭ«": 6214,
      "88": 6215,
      "ĠìķĪìłĦíķľ": 6216,
      "ìĹĪëĭ¤ê³ł": 6217,
      "ìĿ¸ì¦Ŀ": 6218,
      "ë³´ì¦Ŀ": 6219,
      "Ġê°ĲìĹ¼ì¦Ŀ": 6220,
      "Ġë³´ë©´ìĦľ": 6221,
      "ëĶĶìŀĲìĿ¸": 6222,
      "ëĿ¼ìĿ´ìĸ¸": 6223,
      "ì§Ģê²Ģ": 6224,
      "Ġê°ĲìĦ±": 6225,
      "Ġíıīì°½": 6226,
      "Ġíĸ¥íķľ": 6227,
      "ìĹł": 6228,
      "Ġë²Ķíĸī": 6229,
      "Ġì°¸ìĹ¬íķľ": 6230,
      "ì¤ĺìķ¼": 6231,
      "ĠìĽĲë¦¬": 6232,
      "ìŃ": 6233,
      "Ġì°½ìĽĲ": 6234,
      "ìĺ¨ëĿ¼ìĿ¸": 6235,
      "ĠìŀĲìłĦê±°": 6236,
      "ì§ģíķľ": 6237,
      "Ġìľłíĸī": 6238,
      "ĠíĸĪëĭ¤ê³ł": 6239,
      "Ġëĸ¨ìĸ´ìł¸": 6240,
      "Ġíı¬íĬ¸": 6241,
      "ë°Ķëĭ¤": 6242,
      "ĠìĦ¸ìĽĮ": 6243,
      "ĠìĦ¤ë¹Ħ": 6244,
      "Ġë°ľê¸ī": 6245,
      "Ġê°Ģìķ¼": 6246,
      "ë¸Ķë¡Ŀ": 6247,
      "Ġíļ¨ìľ¨ìłģ": 6248,
      "ĠìĿ¼ì¹ĺ": 6249,
      "Ġìĸ»ìĿĢ": 6250,
      "ìĨĮìĬ¤": 6251,
      "ĠìĹ¬ëĭ¹": 6252,
      "ĠìĤ°ìĹħíĺģëªħ": 6253,
      "Ġê·¸ë§Į": 6254,
      "íķµíĻĶ": 6255,
      "Ġê°ľìĦ±": 6256,
      "Ġì¢ħì¢ħ": 6257,
      "Ġíģ´ëŁ½": 6258,
      "Ġì·¨ê¸ī": 6259,
      "Ġê²°ìĬ¹": 6260,
      "ëĤĺê°Ģ": 6261,
      "Ġìĭ¤ì§Īìłģ": 6262,
      "Ġìĭ¤ë¦¬ì½ĺ": 6263,
      "ëĭ¤ë¦¬": 6264,
      "Ġì°¸ì¡°íķĺë©´": 6265,
      "Ġìĺ¤ë¥´": 6266,
      "ëįĶë¶Īìĸ´": 6267,
      "ê³łê°Ŀ": 6268,
      "ëĤĺê²Į": 6269,
      "ĠìĥģëĮĢë°©": 6270,
      "ĠìŀĲìľłíķľêµŃëĭ¹": 6271,
      "Ġë³´ì§Ģ": 6272,
      "ì¼Ī": 6273,
      "ë°±íĻĶìłĲ": 6274,
      "ĠìľłìĹ°": 6275,
      "ëĲĺìĹĪê³ł": 6276,
      "ĠìķĦë¬´ëŁ°": 6277,
      "ĠìĤ¬ìļ©ëĲł": 6278,
      "íĭ°ëĵľ": 6279,
      "ĠíĥĢìŀħ": 6280,
      "ìĤ¬ìĹħìŀĲ": 6281,
      "ìŀ¬ë°°": 6282,
      "Ġê·¸ëŀ¬": 6283,
      "Ġìī¬ìļ´": 6284,
      "ĠìĨĮìĻ¸": 6285,
      "ĠëĮĢíĳľíĮĢ": 6286,
      "ĠìľĦìĥģ": 6287,
      "ĠìľłìĿĺ": 6288,
      "ĠìĹ°ëĮĢ": 6289,
      "Ġì£¼ì²´": 6290,
      "ìĪľíĻĺ": 6291,
      "ëĲľëĭ¤ëĬĶ": 6292,
      "ĠëĤĺë¦Ħ": 6293,
      "ê°Ģíı¬ë¥´": 6294,
      "ê¼¬": 6295,
      "ĠìŁģ": 6296,
      "Ġê°Ħíİ¸": 6297,
      "ĠìĿ¸íĦ°íİĺìĿ´ìĬ¤": 6298,
      "Ġì°¨ê´Ģ": 6299,
      "ìŀĳê°Ģ": 6300,
      "ê¸°ìłģ": 6301,
      "ĠìłķíķĺëĬĶ": 6302,
      "ħìĬ¤": 6303,
      "ĠëĮĢìĿĳíķĺëĬĶ": 6304,
      "ĠëıĦì¿Ħ": 6305,
      "ĠíĴįê²½": 6306,
      "Ġë¸ĮëĿ¼ì§Ī": 6307,
      "ĠíĿī": 6308,
      "íĻķìĭ¤": 6309,
      "ê¹Ĳ": 6310,
      "ìķĬ": 6311,
      "Ġì§Ģíĳľ": 6312,
      "ĠëĦĲë¦¬": 6313,
      "Ġë¯¸ëĭĪ": 6314,
      "Ġê°ķíķĺê²Į": 6315,
      "ĠìłĦíĽĦ": 6316,
      "Ġê³µìĽĲ": 6317,
      "Ġëĭ¹ë¶ĢíĸĪëĭ¤": 6318,
      "ĠëģĿëĤľ": 6319,
      "ĠíķĦìļĶíķĺëĭ¤ê³ł": 6320,
      "Ġëĭ¨ìĨį": 6321,
      "ĠëĭµíĸĪëĭ¤": 6322,
      "ê²½ê¸°ëıĦ": 6323,
      "ìķĪíĥĢ": 6324,
      "Ġì¢ĭê²łëĭ¤": 6325,
      "Ġëª½": 6326,
      "ìŀĸìķĦìļĶ": 6327,
      "ĠëĦĵìĿĢ": 6328,
      "Ġìŀĺëª»ëĲľ": 6329,
      "ë¸ĮëĿ¼": 6330,
      "Ġìķ¡ìħĺ": 6331,
      "ëŁ¬ìĭľìķĦ": 6332,
      "ĠíĻľìĦ±": 6333,
      "íĮ¡": 6334,
      "Ġê¹¨ëģĹ": 6335,
      "Ġë²Įê¸Ī": 6336,
      "íķĺë¯Ģë¡ľ": 6337,
      "Ġìĭľê³µ": 6338,
      "Ġì²ľìĹ°": 6339,
      "Ġê°ĢìĨį": 6340,
      "Ġì§ĦíĸīëĲľ": 6341,
      "ìĿ¸ëį°ìļĶ": 6342,
      "Ġìĭľìĥģ": 6343,
      "íĨµìĥģ": 6344,
      "Ġë¯¿ìĿĮ": 6345,
      "Ġì¢Įìļ°": 6346,
      "íķĻìŀĲ": 6347,
      "ĠìĿ´ìĦ±": 6348,
      "Ġë°Ł": 6349,
      "ĠìĤ¬ìĿ´ë²Ħ": 6350,
      "Ġìķ½ë¬¼": 6351,
      "ĠìłĦìłľ": 6352,
      "Ġê·¸ëŁ¼": 6353,
      "Ġì¦Ŀìĭľ": 6354,
      "Ġê¸°êµ¬": 6355,
      "ê²Įëĭ¤ê°Ģ": 6356,
      "ĠìķĦëĭĻëĭĪëĭ¤": 6357,
      "Ġêµ¬ëĭ¨": 6358,
      "ëĶĶìħĺ": 6359,
      "ĠìĪĺíıī": 6360,
      "Ġë¡ľëĵľ": 6361,
      "Ġê³łëł¹": 6362,
      "Ġê°Ĳê°ģ": 6363,
      "íķ´ì¡Įëĭ¤": 6364,
      "ĠìĦ¤ëªħíķľëĭ¤": 6365,
      "ĠìŀĲìĹ°ìĬ¤ëŁ½ê²Į": 6366,
      "ë³´ìĪĺ": 6367,
      "Ġë³¸ê²©ìłģ": 6368,
      "ĠìĹĲê²ĮìĦľ": 6369,
      "ê¿Ī": 6370,
      "Ġêµ¬ëıħ": 6371,
      "ìĦľìļ¸ìĭľ": 6372,
      "Ġë¿Į": 6373,
      "Ġì²¨ë¶Ģ": 6374,
      "ĠíĺķìĦ±ëĲĺìĸ´": 6375,
      "Ġìŀ¥ë¥´": 6376,
      "ĠìŀĲìĤ´": 6377,
      "ĠìĽ¨ìĿ´": 6378,
      "Ġê³µìĤ°": 6379,
      "ĠìłķíĻķíŀĪ": 6380,
      "Ġëħ¸íĬ¸": 6381,
      "ĠìĹħì¢ħ": 6382,
      "203": 6383,
      "íĹĪê°Ģ": 6384,
      "Ġì°¸ìĹ¬íķĺëĬĶ": 6385,
      "íķĺìĭľëĬĶ": 6386,
      "Ġíķ´ê²°íķĺê¸°": 6387,
      "ìĺģìĹŃ": 6388,
      "Ġíľ´ìĭĿ": 6389,
      "Ġë¬´ëł¤": 6390,
      "ĠìĹĲìĦľë¶ĢíĦ°": 6391,
      "Ġë°ĿíĺĶìĬµëĭĪëĭ¤": 6392,
      "ĠíĽ¼ìĨĲ": 6393,
      "Ġë§ĲíĸĪìĬµëĭĪëĭ¤": 6394,
      "69": 6395,
      "Ġë³´ìľłíķľ": 6396,
      "ë®": 6397,
      "ìķĦì§Ģ": 6398,
      "Ġì´Īëŀĺ": 6399,
      "ë°Ķë§Ī": 6400,
      "ĠíĻĶìŀ¥íĴĪ": 6401,
      "ìķĪìłķ": 6402,
      "Ġëĭ¬íķĺëĬĶ": 6403,
      "ĠìķĦìĿ´íı°": 6404,
      "Ġê¸°ìŀĲëĵ¤": 6405,
      "ë§ģíģ¬": 6406,
      "Ġê³µìĭľ": 6407,
      "ìĺģìĹħ": 6408,
      "ĠìłľìĻ¸íķĺê³ł": 6409,
      "ĠìłĦíĺķ": 6410,
      "ĠìķłëĭĪë©ĶìĿ´ìħĺ": 6411,
      "Ġìĭ¸ìĽĢ": 6412,
      "ìĦ¼íĬ¸": 6413,
      "ìŀĲë³¸": 6414,
      "Ġë¬¼ë¥ĺ": 6415,
      "ìķĦë¬´": 6416,
      "ĠíĥĿìĭľ": 6417,
      "ĠìķĦë¬´ë¦¬": 6418,
      "ìĹĦë§Ī": 6419,
      "ìļ°ê¸°": 6420,
      "Ġì¶Ķìĸµ": 6421,
      "Ġê¸°ëıĦ": 6422,
      "ìĳ": 6423,
      "ĠìłķìĽĲ": 6424,
      "ĠêµŃë°©ë¶Ģ": 6425,
      "Ġë¬¼íĴĪ": 6426,
      "ëĭ¤ìĪĺ": 6427,
      "Ġìĺ¤ë¸Į": 6428,
      "Ġê²°ìĿĺ": 6429,
      "ë¯¸ëĤĺ": 6430,
      "íĤ¤ë¡ľ": 6431,
      "Ġê³µì²ľ": 6432,
      "ĠëĲĺìĹĪìĬµëĭĪëĭ¤": 6433,
      "ëĿ¼ìĬ¤íĭ±": 6434,
      "ìłķê·ľ": 6435,
      "ëĦ¤ìĭľìķĦ": 6436,
      "Ġìŀħì§Ģ": 6437,
      "ëĭ«": 6438,
      "ë¡ľìļ°": 6439,
      "ì¶Ķì§Ħ": 6440,
      "Ġë¡ľë§Ī": 6441,
      "ìķĺëĬĶëį°": 6442,
      "Ġì¦Ĳê±°": 6443,
      "Ġê³Ħìłķ": 6444,
      "ìĤ¬ëŀĮëĵ¤": 6445,
      "Ġë¬¸ìĿĺ": 6446,
      "Ġë¸Ķë£¨": 6447,
      "ĦìĥĪ": 6448,
      "ìĿ´ê±°ëĤĺ": 6449,
      "íĻĶíķĺëĬĶ": 6450,
      "ìĦ¸ìĥģ": 6451,
      "Ġë³´ìľłíķĺê³ł": 6452,
      "íķĺë£¨": 6453,
      "ĠíĪ¬ìŁģ": 6454,
      "Ġíķ©ë¥ĺ": 6455,
      "ĠìĦĿìľł": 6456,
      "ìĿ¸êµ¬": 6457,
      "ĠìĬ¤íģ¬ë¦°": 6458,
      "ìłľê³µ": 6459,
      "ìŀ¬ìłķ": 6460,
      "Ġì£¼ìľĦ": 6461,
      "ĠìĿ¼ì¢ħ": 6462,
      "Ġì²Ńìķ½": 6463,
      "ĠìĹ°ìĺĪ": 6464,
      "Ġì°¨ì§ĢíĸĪëĭ¤": 6465,
      "Ġìĺ¬ë¦°": 6466,
      "Ġê³ĦìĨįíķ´ìĦľ": 6467,
      "ĠëıĦìĭ¬": 6468,
      "Ġìĺģìŀħ": 6469,
      "Ġê¹ľ": 6470,
      "Ġê²½ìĦł": 6471,
      "Ġë¸Įë¦¬": 6472,
      "ĠíĺĦìķĪ": 6473,
      "ĠêµŃê°Ģëĵ¤": 6474,
      "Ġíķĺìļ°": 6475,
      "Ġìĭ¬ì§Ģìĸ´": 6476,
      "ĠìłľêµŃ": 6477,
      "ìĭľíĸī": 6478,
      "Ġì°¬ìĦ±": 6479,
      "ĠìķĦëĭĪì§Ģë§Į": 6480,
      "Ġìļ´ìłĦìŀĲ": 6481,
      "Ġìŀ¬ë¬´": 6482,
      "Ġë¹ħëį°ìĿ´íĦ°": 6483,
      "Ġë¶Ģìŀĳìļ©": 6484,
      "ì§ĢìĬ¤íĦ°": 6485,
      "ĠìĤ¬íĩ´": 6486,
      "ĠìĿĺíķ´ìĦľ": 6487,
      "ĠëıĻìĥĿ": 6488,
      "ĠìĿ´íķ´íķł": 6489,
      "Ġë§Įëĵ¤ìĸ´ì§Ħ": 6490,
      "ìĹ¬ìŀĲ": 6491,
      "Ġëĭ¤ìĿĮëĭ¬": 6492,
      "ĠìĿ´ìĤ¬íļĮ": 6493,
      "ĠìĿĺë¢°": 6494,
      "ĠíĺĦëĮĢì°¨": 6495,
      "Ġëĸ¨": 6496,
      "Ġì¼ĢìĿ´ë¸Ķ": 6497,
      "ĠìĿ¸ìĩĦ": 6498,
      "ë³´ìŀ¥": 6499,
      "ĠìĹĨê¸°": 6500,
      "ĠìĥģíĻĺ": 6501,
      "Ġì§Ģì¶ľ": 6502,
      "ê·ľì¹Ļ": 6503,
      "ĠëĦĺê²Į": 6504,
      "ë²¤ì²ĺ": 6505,
      "Ġê¸°ìĽĲ": 6506,
      "Ġë§ĮëĤł": 6507,
      "ìĸ´ìł¸": 6508,
      "Ġëĭ¤ìļ´ë¡ľëĵľ": 6509,
      "ê·¼ë¡ľ": 6510,
      "ìŀ¬ë£Į": 6511,
      "ĠíĮ½": 6512,
      "Ġë³¸ê²©ìłģìĿ¸": 6513,
      "ĠìĭłìĦł": 6514,
      "ìĵ¸": 6515,
      "ĠìĥĿê¸°": 6516,
      "ĠìĬµê´Ģ": 6517,
      "íĥĦìĨĮ": 6518,
      "íĻķìĿ¸": 6519,
      "ĠìķĦëĭĪìĹĪëĭ¤": 6520,
      "ìļ©íĴĪ": 6521,
      "ì²łìĪĺ": 6522,
      "ĠìĤ¬ìļ©íķĺê³ł": 6523,
      "ĠìĿ´ìĸ´ì§Ī": 6524,
      "ĠìĻĢìĿ¸": 6525,
      "310": 6526,
      "Ġë¯¼ìĽĲ": 6527,
      "ĠëıĻëĦ¤": 6528,
      "ê°Ĳíķľ": 6529,
      "ĠëĶ°ëľ»íķľ": 6530,
      "íĬ¹íĹĪ": 6531,
      "íĶĦëłĪìŀĦ": 6532,
      "ìķĦë§Ī": 6533,
      "ĠíĶ¼ê³łìĿ¸": 6534,
      "003": 6535,
      "Ġíķ©ë¦¬": 6536,
      "ĠëĿ¼ë©°": 6537,
      "ì¤ĳìĭ¬": 6538,
      "ëĦĲëĵľ": 6539,
      "ìĻ¸ìĦł": 6540,
      "ĠëĤ¨ë¶Ģ": 6541,
      "ĠëĤ´ëĬĶ": 6542,
      "Ġë¬¼ê°Ģ": 6543,
      "Ġë¬´ìĹĩìĿ¸ê°Ģ": 6544,
      "ìĸµëĭ¬ëŁ¬": 6545,
      "ë²Ħê·¸": 6546,
      "ĠíĺķìĦ±ëĲł": 6547,
      "78": 6548,
      "ìĿ´ìĹĪê³ł": 6549,
      "121": 6550,
      "ëĲľëĭ¤ê³ł": 6551,
      "ĠìķĦìļ°": 6552,
      "ìºĶ": 6553,
      "ĠìĦ¸ìĽĶíĺ¸": 6554,
      "Ġíĸīë³µíķľ": 6555,
      "ì£¼ë©´": 6556,
      "ĠìĦ¤ëªħíķĺê¸°": 6557,
      "ĠëĥĪëĭ¤": 6558,
      "Ġëĭ¹ìĿ¼": 6559,
      "ĠìŀħìĿĢ": 6560,
      "ê·ľìłľ": 6561,
      "ë§Įëĭ¬ëŁ¬": 6562,
      "ê³łìļ©": 6563,
      "Ġë§īê¸°": 6564,
      "71": 6565,
      "ĠëĲľëĭ¤ê³ł": 6566,
      "ë°Ģíķľ": 6567,
      "ĠìĻ¼ìª½": 6568,
      "íĬ¸ë¡ľ": 6569,
      "ĠíĺķìĦ±ëĲĺëĬĶ": 6570,
      "ķìĭľì½Ķ": 6571,
      "ĠìĦ¸ê³ĦìłģìĿ¸": 6572,
      "Ġìłľê³ł": 6573,
      "ĠìĨĮíĻĺ": 6574,
      "ĠìĦłìĤ¬": 6575,
      "ĠíĶĮëĿ¼": 6576,
      "ìĭľìķĪ": 6577,
      "Ġì½©": 6578,
      "ĠìĿ´ëĭ¤": 6579,
      "ĠíĽĦìĨį": 6580,
      "ëĲĲëįĺ": 6581,
      "ĠìĹ´ë¦°ëĭ¤": 6582,
      "ĠìŀħêµŃ": 6583,
      "ëł¤ìĦľ": 6584,
      "íĺĳìłķ": 6585,
      "Ġëª»íķľëĭ¤": 6586,
      "ĦëĬĶ": 6587,
      "ì°¨ìłĦ": 6588,
      "ĠìĪĺìĪĺë£Į": 6589,
      "Ġê°ĻìķĦ": 6590,
      "Ġê°Ħëĭ´íļĮ": 6591,
      "Ġì´Ŀê´Ħ": 6592,
      "ëĴ¤": 6593,
      "ĠìĿ´ëĿ¼ëĬĶ": 6594,
      "Ġë¬´ê´Ģ": 6595,
      "ĠìłĪìĹ°": 6596,
      "ìī½ê²Į": 6597,
      "ĠìĿĮë£Į": 6598,
      "ëŀ«ëıĻìķĪ": 6599,
      "Ġë³´ìĹ¬ì¤Ģëĭ¤": 6600,
      "Ġìŀħêµ¬": 6601,
      "ĠìłĦì§Ģ": 6602,
      "Ġê·¸ë§Įíģ¼": 6603,
      "Ġìļ©ëŁī": 6604,
      "Ġê´Ģê³ĦìŀĲëĵ¤": 6605,
      "ìĽĲíķľ": 6606,
      "ĠìĦ±ê³µìłģ": 6607,
      "ĠìĦ±ëĤ¨": 6608,
      "ìķĦìĽĥ": 6609,
      "Ġë¹ĦíķµíĻĶ": 6610,
      "Ġíľ´ëĮĢíı°": 6611,
      "ê³µê°Ĳ": 6612,
      "ì§ľë¦¬": 6613,
      "ĠìĿ´ì£¼": 6614,
      "ĠìĿ´ëŀĳ": 6615,
      "Ġì§Ħíĸīíķł": 6616,
      "Ġë¶Ħíķł": 6617,
      "ĠìĪĺíĸīíķł": 6618,
      "íħĮë¦¬ìĸ´": 6619,
      "âĸł": 6620,
      "ëĳĲê¸°": 6621,
      "ìļ´ìļ©": 6622,
      "Ġì¢ĭìĬµëĭĪëĭ¤": 6623,
      "ëĭ´ëĭ¹": 6624,
      "ê¸°ë¶Ģ": 6625,
      "ëŀĮíļĮ": 6626,
      "ĠìŀĲë¬¸": 6627,
      "Ġë§İê³ł": 6628,
      "ĠìĦ¹": 6629,
      "ĠìĹĨìĸ´ìĦľ": 6630,
      "Ġìĵ°ëłĪê¸°": 6631,
      "Ġì¤ĳìłĲ": 6632,
      "ì¤ĳìĿ¸": 6633,
      "ëĭ¤ìĿ´": 6634,
      "ĠëĳĺëŁ¬ìĭ¼": 6635,
      "ĠìĪĺë©´": 6636,
      "Ġê¸°ëĮĢê°Ĳ": 6637,
      "ìŀĪê²Į": 6638,
      "ĠìĦ¤ë¬¸": 6639,
      "ìĥĪë¡ľìļ´": 6640,
      "ë°Ń": 6641,
      "Ġìĺ¤ëĬĺëĤł": 6642,
      "ê¸°ëħĲ": 6643,
      "Ġíı¬íķŃ": 6644,
      "Ġë§¤ìŀħ": 6645,
      "ĠìĥģìĥĿ": 6646,
      "Ġë©Ģë¦¬": 6647,
      "Ġë¬¼ëŁ¬": 6648,
      "ì¢ĭìĿĢ": 6649,
      "ĠëĮĢìļ°": 6650,
      "íķ´ì§Ħëĭ¤": 6651,
      "ĠëģĮê³ł": 6652,
      "Ġë·°": 6653,
      "Ġì»¸": 6654,
      "īìĿĢ": 6655,
      "Ġì¡°ìĭ¬": 6656,
      "ĠëĬĲëģ¼ëĬĶ": 6657,
      "Ġë§Īì¹ľ": 6658,
      "98": 6659,
      "ìĹĲíĭ¸": 6660,
      "ĠíĭĪ": 6661,
      "ë¦¬ë©´ìĦľ": 6662,
      "ĠëĤ¨ëħĢ": 6663,
      "ĠìĹŃìĤ¬ìłģ": 6664,
      "ĠíĺĪìķ¡": 6665,
      "Ġì¡°ê¸ĪìĶ©": 6666,
      "ê³łëĵ±íķĻêµĲ": 6667,
      "ëį°ë¯¸": 6668,
      "ê°Ģë©°": 6669,
      "íĹ¨": 6670,
      "ĠìĿ¼ìĸ´ëĤľ": 6671,
      "ĠëĤĺìĿĢ": 6672,
      "Ġê²ĥìĿ´ëĿ¼": 6673,
      "ĠìĹĨìĹĪëįĺ": 6674,
      "ĠìŀĪê²ł": 6675,
      "ĠíĥĦìĦ±": 6676,
      "íħĶëłĪì½¤": 6677,
      "ëŀĢíŀĪ": 6678,
      "ĠìŀĲìĭłê°Ĳ": 6679,
      "ĠíĺĦíĸī": 6680,
      "ë³¸ëĭ¤": 6681,
      "Ġìĺ¤ë¥ĺ": 6682,
      "ëĦĮ": 6683,
      "ĠìĿ´ë¯¼": 6684,
      "Ġë²ĦíĬ¼": 6685,
      "Ġì¤ĳêµ¬": 6686,
      "ĠáĦ": 6687,
      "Ġì§Ģíĸ¥": 6688,
      "Ġì«ĵ": 6689,
      "Ġë¶Ģì±Ħ": 6690,
      "Ġëĭ¤ìĿ´ìĸ´": 6691,
      "ĠíĮ¨ë°°": 6692,
      "Ġê²Įìŀ¬": 6693,
      "Ġê°ľë°ľíķľ": 6694,
      "Ġë§¤ë§¤": 6695,
      "Ġê³µê°ľíĸĪëĭ¤": 6696,
      "Ġëį°ìĿ´": 6697,
      "ìłķë§Ĳ": 6698,
      "Ġìłĳì°©": 6699,
      "Ġê³łìĨĮ": 6700,
      "ìķĦíĮĮíĬ¸": 6701,
      "ìłĦëł¥": 6702,
      "ĠìµľìĨĮíķľ": 6703,
      "Ġê¸°ë¡Ŀíķľ": 6704,
      "ĠìłĦìĦ¸": 6705,
      "Ġì¢ħìĿ´": 6706,
      "ĠëĲĺëıĦë¡Ŀ": 6707,
      "Ġêµ¬ìĥģ": 6708,
      "Ġë©ľ": 6709,
      "ĠìĪľíĻĺ": 6710,
      "Ġì¶ľìĤ°": 6711,
      "Ġì°½ìŀĳ": 6712,
      "Ġì»¨íĬ¸ë¡¤": 6713,
      "Ġì¥Ĳ": 6714,
      "ë³´ê³łìĦľ": 6715,
      "ìłĪíķľ": 6716,
      "íļĮê´Ģ": 6717,
      "ĠìŀĦìĭł": 6718,
      "ì£¼ìĭĿ": 6719,
      "Ġë¶Ģë¥´": 6720,
      "Ġíķĺìļ°ì§ķ": 6721,
      "Ġê¸°ìĥģ": 6722,
      "Ġíķłì§Ģ": 6723,
      "ìľłìĤ°": 6724,
      "Ġë°°íı¬": 6725,
      "ĠëĿ¼ìĿ´ë¸Į": 6726,
      "Ġë§¤ëĭ¬": 6727,
      "ĠìĿ¼ì£¼ìĿ¼": 6728,
      "Ġì¹ĺíĻĺ": 6729,
      "Ġë°ĺëł¤": 6730,
      "íķĺëįĶëĿ¼ëıĦ": 6731,
      "ĠìķĦëĭĲê¹Į": 6732,
      "íķĻìĥĿëĵ¤": 6733,
      "Ġê¹ĢìĶ¨": 6734,
      "Ġê°Ģë§¹": 6735,
      "ë¨¸ìĬ¤": 6736,
      "ĠìĦľêµ¬": 6737,
      "ê·¸ëłĩëĭ¤ë©´": 6738,
      "ì½ĶìĿ¸": 6739,
      "Ġì¹¸": 6740,
      "ĠíħĮë§Ī": 6741,
      "Ġë§¡ìĿĢ": 6742,
      "Ġìľłíķ´": 6743,
      "ëĦ£": 6744,
      "ê²½ëĤ¨": 6745,
      "ê°¤": 6746,
      "ĠíļĮê³Ħ": 6747,
      "ìłĦëĤ¨": 6748,
      "Ġíĸīìłķë¶Ģ": 6749,
      "ĠìĭľëĤ´": 6750,
      "ĠìĤ¬ë¬¼": 6751,
      "ĠìĺģìĹħìĿ´ìĿµ": 6752,
      "Ġì¡°ê°ģ": 6753,
      "ĠìłĦë°©": 6754,
      "Ġë´Ĳìķ¼": 6755,
      "ìļ©ì°¨": 6756,
      "ĠìĪĺë¦¬": 6757,
      "Ġë¹µ": 6758,
      "ĠìĽĲë£Į": 6759,
      "ê·¸ëŀĺëıĦ": 6760,
      "Ġê³łíĸ¥": 6761,
      "ìĿ¼ëĭ¨": 6762,
      "íŀĮëĭ¤": 6763,
      "Ġì´Īëĵ±íķĻêµĲ": 6764,
      "Ġìĸĳì¸¡": 6765,
      "Ġë°¸ë¸Į": 6766,
      "Ġë³ĢìĪĺ": 6767,
      "ĠëĤ´ëĭ¤": 6768,
      "ëĨĴ": 6769,
      "ĠìľĦíĥģ": 6770,
      "ĠíķĺëĬĶì§Ģ": 6771,
      "Ġê´ĢíķĺìĹ¬": 6772,
      "Ġëª¨ìľ¼": 6773,
      "Ġë¯¸êµ°": 6774,
      "ĠíĻĺìĺģ": 6775,
      "ĠìĸĳìŀĲ": 6776,
      "Ġì¶ķíķĺ": 6777,
      "ë¦¬íķĢ": 6778,
      "ĠëĲĺë©°": 6779,
      "ĠìķĶíĺ¸íĻĶ": 6780,
      "Ġì¦īê°ģ": 6781,
      "ìĦĿìĹ´": 6782,
      "ĠìĹī": 6783,
      "ĠìĤ¬ë§ĿìŀĲ": 6784,
      "ìŀĲìĿ´ëĦĪ": 6785,
      "ĠíıŃíĸī": 6786,
      "ìłľìĸ´": 6787,
      "ìĺ¨ëĭ¤": 6788,
      "Ġë§Ĳíķľ": 6789,
      "Ġì¡°íĻĶ": 6790,
      "Ġê°ľìĿ¸ìłģ": 6791,
      "ĠëłĪìĿ´ìłĢ": 6792,
      "ìłľëª©": 6793,
      "ê²½ì°°ìĦľ": 6794,
      "ĠìŀĦìĽĲ": 6795,
      "ëĤĺë§Ī": 6796,
      "Ġëĵ¤ìĸ´ê°Ħ": 6797,
      "Ġëĭ¹ìĤ¬": 6798,
      "íķ´ê²°": 6799,
      "ĠìĨĮíĺķ": 6800,
      "ĠìĿ´ë©ĶìĿ¼": 6801,
      "ĠíĻķìĭł": 6802,
      "Ġì£¼ì§Ģ": 6803,
      "ìĦ¼ìĦľ": 6804,
      "Ġíķ´ëªħ": 6805,
      "Ġë¶Īê°ĢíĶ¼": 6806,
      "ëįĶìļ±": 6807,
      "ĠëĨĴìĿ´ëĬĶ": 6808,
      "ìĤ¬ë¬´ìĨĮ": 6809,
      "ê³µê³µ": 6810,
      "Ġìĥīìĥģ": 6811,
      "Ġì¶ĶìĦĿ": 6812,
      "ëł·": 6813,
      "ìļ°ì£¼": 6814,
      "ĠìķĬëĬĶëĭ¤ëĬĶ": 6815,
      "ĠëĮĢê²°": 6816,
      "ìĿ´ëıĻ": 6817,
      "Ġìłķì¹ĺê¶Į": 6818,
      "Ġê°Ģíķ´": 6819,
      "Ġê°Ĳìĥģ": 6820,
      "ê´ĳê³ł": 6821,
      "Ġëĭ¤íĸī": 6822,
      "ë¬´ìĹĩ": 6823,
      "ĠìĤ´íķ´": 6824,
      "ê¹ĥ": 6825,
      "ĠíĴįë¶Ģíķľ": 6826,
      "íģ´ëŁ½": 6827,
      "Ġë©¸": 6828,
      "ìĭľëĭ¤": 6829,
      "Ġíı¬íķ¨íķĺìĹ¬": 6830,
      "Ġëıĭ": 6831,
      "ë©Ģ": 6832,
      "Ġì¶Ķì§Ħíķĺê³ł": 6833,
      "ĠìķĪìłķìłģìĿ¸": 6834,
      "ìĬĺ": 6835,
      "ìģ¨": 6836,
      "ëıĦìĦľê´Ģ": 6837,
      "íķĻìĽĲ": 6838,
      "Ġë¥´": 6839,
      "ĠìĿ´ë¥´ëĬĶ": 6840,
      "ĠêµĲìľ¡ë¶Ģ": 6841,
      "ëī": 6842,
      "ĠìĽĲìłĦ": 6843,
      "Ġê³µì§Ģ": 6844,
      "Ġëª°ìķĦ": 6845,
      "Ġì§Ħìĭ¬": 6846,
      "ëĳĳ": 6847,
      "Ġì§ĢìĽĲíķł": 6848,
      "ìĦ¸íķľ": 6849,
      "ĠìķĪìłķìłģ": 6850,
      "Ġíķľëĭ¤ë©´": 6851,
      "ì¤ĳìĨĮ": 6852,
      "//": 6853,
      "ĠëģĬìŀĦìĹĨìĿ´": 6854,
      "íıīëĵ±": 6855,
      "ëĭŃ": 6856,
      "ĠëĬĲê¼": 6857,
      "Ġê¼¼": 6858,
      "Ġì±Ħë¬´": 6859,
      "Ġëĭ¨ìĪľíķľ": 6860,
      "Ġë§ĮíĻĶ": 6861,
      "ê°ĲìĹ¼": 6862,
      "ì´ĿíļĮ": 6863,
      "ì°¨ë³Ħ": 6864,
      "ĠìĽĮíģ¬": 6865,
      "ëĥī": 6866,
      "Ġë§Īì¹ĺê³ł": 6867,
      "ĠëĤ¨ê²¨": 6868,
      "ìŀĦëĮĢ": 6869,
      "ĠìĿĳìļ©": 6870,
      "ìĦ¸ì¢ħ": 6871,
      "íķĺëĬĶì§Ģ": 6872,
      "ĠëĤĺíĥĢëĤľ": 6873,
      "ê¸°ë°ĺ": 6874,
      "Ġì§Ģë°©ìŀĲì¹ĺëĭ¨ì²´": 6875,
      "ë²ķìĥģ": 6876,
      "Ġìłģì§Ģ": 6877,
      "Ġë©´ìłĳ": 6878,
      "ĠëĦ·": 6879,
      "320": 6880,
      "ìĤ¼ìĦ±ìłĦìŀĲ": 6881,
      "Ġìıĺ": 6882,
      "ëıħìĿ¼": 6883,
      "Ġë¬´ì¡°ê±´": 6884,
      "ĠìĤ°íĻĶ": 6885,
      "ĠìłķíĻķíķĺê²Į": 6886,
      "ìķĦëĵ¤": 6887,
      "Ġì¡°ìļ©": 6888,
      "Ġì§ĦëıĻ": 6889,
      "ìĭľíĬ¸": 6890,
      "ìĭ¬íķľ": 6891,
      "ëĲĺìĹĪìĬµëĭĪëĭ¤": 6892,
      "Ġìĸ´ê¹¨": 6893,
      "Ġë¬¸ìŀ¥": 6894,
      "ìłķìĽĲ": 6895,
      "ĠëłĮì¦Ī": 6896,
      "ĠìĿ¼ìĽĲ": 6897,
      "Ġìĸ´ë¥¸": 6898,
      "ĠìĿ´ìĬ¹": 6899,
      "ĠëĮĢíķĻêµĲ": 6900,
      "ĠìĽĲê²©": 6901,
      "ĠíķĻìĽĲ": 6902,
      "ĠíĥĳìĬ¹": 6903,
      "ëĭ¬ëĿ¼ê³ł": 6904,
      "Ġìĸĳìĥģ": 6905,
      "ë¹¨": 6906,
      "íĥł": 6907,
      "ĠíĥĢìŀĦ": 6908,
      "âĶĢâĶĢâĶĢ": 6909,
      "Ġìłģë°ľ": 6910,
      "ĠìĿ¼ëĵ¤": 6911,
      "Ġê°Ŀê´Ģ": 6912,
      "97": 6913,
      "Ġëªħìĭľ": 6914,
      "ë¯¸ìĤ¬ìĿ¼": 6915,
      "ëĨĢìĿ´": 6916,
      "Ġê³µìĨĮ": 6917,
      "ëģĪ": 6918,
      "ìļ¸ìĤ°": 6919,
      "Ġìĸ´ëł¤ìĽĮ": 6920,
      "íĺĳìĥģ": 6921,
      "Ġëħ¹ìĥī": 6922,
      "Ġê¸įìłķìłģ": 6923,
      "ìĿ¸ëıĦ": 6924,
      "Ġê·¹ëĮĢíĻĶ": 6925,
      "ì§Ģë²ķ": 6926,
      "ĠëĤĺìģľ": 6927,
      "ĠìłĢìŀĲ": 6928,
      "Ġë¦¬ë·°": 6929,
      "ìłĦìĭľ": 6930,
      "ìłĲê²Ģ": 6931,
      "Ġëĭ¨ìłĲ": 6932,
      "Ġëª©ìĪ¨": 6933,
      "ë§ĪìĿ´": 6934,
      "240": 6935,
      "122": 6936,
      "Ġì»¨íħĲì¸ł": 6937,
      "Ġìĺ¤íĶ¼ìĬ¤": 6938,
      "ĠìĹĨìĹĪ": 6939,
      "ê¸°ê³Ħ": 6940,
      "ìłĦíķľ": 6941,
      "ĠìĿ´ê°ĻìĿĢ": 6942,
      "Ġëĭ¨ì¶ķ": 6943,
      "Ġê°ģêµŃ": 6944,
      "ĠìļĶê±´": 6945,
      "Ġì½Ķë¦¬ìķĦ": 6946,
      "Ġëħ¸ëĵľ": 6947,
      "ëĮĢë¹Ħ": 6948,
      "ë¶ģëıĦ": 6949,
      "ĠëĤ©ë¶Ģ": 6950,
      "Ġë¹Ħë¡Ģ": 6951,
      "Ġë¹ĦíĥĢë¯¼": 6952,
      "Ġíı¬íķ¨íķĺê³ł": 6953,
      "Ġìĸ¸ìłľëĤĺ": 6954,
      "Ġêº": 6955,
      "ìĹ¬ê°ľ": 6956,
      "ìļĶê¸Ī": 6957,
      "Ġë¶ĦìĦĿíĸĪëĭ¤": 6958,
      "Ġê·¸ë¦¬ìĬ¤ëıĦ": 6959,
      "íķ´ìĻ¸": 6960,
      "ìĮį": 6961,
      "Ġê²½ìĤ¬": 6962,
      "Ġì§Ģì§Ģìľ¨": 6963,
      "ĠìĿ´ìĬ¬ëŀĮ": 6964,
      "ĠíĮĮëĿ¼": 6965,
      "Ġíķ©ëıĻ": 6966,
      "Ġì¶ľê·¼": 6967,
      "Ġê²¹": 6968,
      "Ġì²´ëł¥": 6969,
      "ëĵľëĿ¼ë§Ī": 6970,
      "íķĺëĿ¼ê³ł": 6971,
      "ì¤Į": 6972,
      "Ġê³łëĵ±íķĻêµĲ": 6973,
      "ĠíĴĪëª©": 6974,
      "Ġëº": 6975,
      "Ġë°ĽìķĦìķ¼": 6976,
      "ĠìĪĺë°±": 6977,
      "Ġêµ°ëĮĢ": 6978,
      "ĠìķķëıĦ": 6979,
      "Ġíķ©ë³ĳ": 6980,
      "ëª¨ëĵĪ": 6981,
      "ìĿ´ë¯Ģë¡ľ": 6982,
      "ë¶ĢëıĻìĤ°": 6983,
      "ĠìĥĮ": 6984,
      "ĠëıĻì°¸": 6985,
      "ĠìķĬìľ¼ë©°": 6986,
      "ëªħëł¹": 6987,
      "Ġì°¨ì§ĢíķĺëĬĶ": 6988,
      "ëį©": 6989,
      "Ġë³µêµ¬": 6990,
      "ë¶ĢëĮĢ": 6991,
      "Ġëĭ¹ì´Ī": 6992,
      "ìĺĢì§Ģë§Į": 6993,
      "ĠëĳĲìĤ°": 6994,
      "ĠìĦłíĥĿíķł": 6995,
      "ì£¼ê°Ħ": 6996,
      "ĠëĨĴìĿ´ê³ł": 6997,
      "ĠëĵĿìłĲ": 6998,
      "ĠëªħìĦ¸ìĦľ": 6999,
      "ĠëĮĢíĳľìĿ´ìĤ¬": 7000,
      "ĠìĪĺìĭľ": 7001,
      "ĠëıĦìĦľê´Ģ": 7002,
      "ĠìĬ¤íĭ°": 7003,
      "ĠìłĦìĹŃ": 7004,
      "Ġë¯¸ì¹ł": 7005,
      "Ġê°ĸì¶Ķê³ł": 7006,
      "ĠìŀĲìĤ¬": 7007,
      "ĠìĪĺë¶Ħ": 7008,
      "Ġì§ĢëıĦìŀĲ": 7009,
      "Ġê°ĸëĬĶëĭ¤": 7010,
      "ì¿¼": 7011,
      "ĠìĹ¬ìĿĺëıĦ": 7012,
      "ìķĺì§Ģë§Į": 7013,
      "ĠëıħíĬ¹íķľ": 7014,
      "Ġë¬´ìĹĩìĿ¸ì§Ģ": 7015,
      "Ġê±´ëĦĪ": 7016,
      "ì©į": 7017,
      "ĠíĶĮëŀĺ": 7018,
      "Ġìĭľìłķ": 7019,
      "Ġì£¼ìŀħ": 7020,
      "âĺħ": 7021,
      "Ġê´Ģëł¨íķĺìĹ¬": 7022,
      "ĠëĮĢìŀ¥": 7023,
      "Ġì½ĺìĦľíĬ¸": 7024,
      "***": 7025,
      "Ġëĭ´ê³ł": 7026,
      "Ġë¬ĺìĤ¬": 7027,
      "Ġë¶ķê´´": 7028,
      "ĠëĲĺë©´ìĦľ": 7029,
      "Ġë¼Ī": 7030,
      "Ġíķĺëįĺ": 7031,
      "ĠëıĦë©´ìĿ´ëĭ¤": 7032,
      "ĠìķĬìķĺì§Ģë§Į": 7033,
      "Ġë³´ìŀħëĭĪëĭ¤": 7034,
      "íĬľëĶĶìĺ¤": 7035,
      "Ġê°Ģì¤ĳ": 7036,
      "Ġë§ŀìĦľ": 7037,
      "Ġìıł": 7038,
      "ëªħë°ķ": 7039,
      "ĠìĹĨê²Į": 7040,
      "Ġë°ľíļ¨": 7041,
      "ĠìŀĲìľłë¡Ńê²Į": 7042,
      "ĠìłķìĦľ": 7043,
      "ĠíķľêµŃëĭ¹": 7044,
      "ĠìĹ°ê²°ëĲľ": 7045,
      "ĠëıĻëĤ¨": 7046,
      "Ġë²ķëł¹": 7047,
      "Ġë¶Ħíı¬": 7048,
      "ĠìĹ¬ê±´": 7049,
      "Ġì¦Ŀì§Ħ": 7050,
      "ëĮĢì¤ĳ": 7051,
      "ìļ°ìĪĺ": 7052,
      "Ġë§¤ìĪĺ": 7053,
      "ë¹ĦìłĦ": 7054,
      "ĠëĪĦë¦¬": 7055,
      "ĠëĿ¼ëĶĶìĺ¤": 7056,
      "ì±ĦëĦĲ": 7057,
      "Ġê°ĸê²Į": 7058,
      "Ġíİ¸ì§Ģ": 7059,
      "Ġìĸ»ê³ł": 7060,
      "ì½ĺíħĲì¸ł": 7061,
      "ĠìĬ¤ìľĦì¹ĺ": 7062,
      "ĠëĦ¥": 7063,
      "ì¹´ëį°ë¯¸": 7064,
      "Ġì§ĦíĸīëĲĺëĬĶ": 7065,
      "ëĲĺìŀĲ": 7066,
      "ëł¤ìķ¼": 7067,
      "ĠìĹĲê²Ĳ": 7068,
      "Ġìĸ´ì©Į": 7069,
      "Ġë´¤ëĭ¤": 7070,
      "Ġìļ´ëªħ": 7071,
      "ĠìĦľìĦľ": 7072,
      "Ġê¸°ë³¸ìłģ": 7073,
      "Ġë³´ë©°": 7074,
      "Ġë§¥ì£¼": 7075,
      "ĠìĤ¬ëŀĳíķĺëĬĶ": 7076,
      "Ġìĺ¤ë¥¸ìª½": 7077,
      "ĠëĮĢê°Ģ": 7078,
      "Ġì£¼ì£¼": 7079,
      "Ġì§Ģëªħ": 7080,
      "ĠíĻķìĿ¸ëĲĲëĭ¤": 7081,
      "ĠëĤĺíĥĢëĤ¸ëĭ¤": 7082,
      "Ġë¶Ģëª¨ëĭĺ": 7083,
      "Ġìĭ¤ìĭľìĺĪëĵ¤": 7084,
      "Ġê³Ħì¸µ": 7085,
      "ĠìĿ½ìĸ´": 7086,
      "ê·¸ëħĢ": 7087,
      "íĿĶ": 7088,
      "Ġëª¨ìŀĲ": 7089,
      "ê¼¼": 7090,
      "Ġê°ĢëģĶ": 7091,
      "ëĭ¨ë¶Ģ": 7092,
      "Ġë®¤ì§Ģì»¬": 7093,
      "íķĻíļĮ": 7094,
      "ĠíĻĶë¬¼": 7095,
      "Ġì§ĢëĭĪ": 7096,
      "ĠëĤĺíĥĢëĤĺëĬĶ": 7097,
      "ĠëıĻëł¥": 7098,
      "ìķ¼ë§Ĳë¡ľ": 7099,
      "Ġê°ģëıĦ": 7100,
      "ĠíĹĪë¦¬": 7101,
      "ĠìĹĨìķł": 7102,
      "Ġëĸ¼": 7103,
      "Ġíľ´ê°Ģ": 7104,
      "ĠëĭŃ": 7105,
      "ë¹Ħìľ¨": 7106,
      "Ġìĸ´ëł¤ìļ¸": 7107,
      "ì°¨ìłģ": 7108,
      "Ġíķ´ìļĶ": 7109,
      "ĠíĪ¬ìĸ´": 7110,
      "íĨłë¡Ŀ": 7111,
      "ĠìĿ¸íķĺìĹ¬": 7112,
      "ë¦¬ìĹĲ": 7113,
      "ĠíļĮëıĻ": 7114,
      "ë£¨ë¯¸": 7115,
      "ìĿ¼ë°ĺìłģ": 7116,
      "íħĮëĤĺ": 7117,
      "ë¦¬íı¬": 7118,
      "Ġíķ¸ëĵľ": 7119,
      "ë¦¬ë¸Į": 7120,
      "Ġíķĺê±°ëĤĺ": 7121,
      "Ġë°ľë§¤": 7122,
      "ì²ŃëħĦ": 7123,
      "ĠëŁ°ëįĺ": 7124,
      "Ġìĺ¤ëŀ«ëıĻìķĪ": 7125,
      "Ġëª©ë¡Ŀ": 7126,
      "Ġë¦¬ìĸ¼íĥĢìŀĦ": 7127,
      "Ġì£¼ì°¨ìŀ¥": 7128,
      "ĠìĹ¬ê²¨": 7129,
      "Ġíģ´ë¦Ń": 7130,
      "íĸīëıĻ": 7131,
      "Ġìŀ¬ëĭ¨": 7132,
      "ĠìĿ´ìĸ´ì§ĢëĬĶ": 7133,
      "350": 7134,
      "ë¶ķ": 7135,
      "ë³µíķ©": 7136,
      "ë°ķíķľ": 7137,
      "ĠíĶĮëłĪìĿ´íĬ¸": 7138,
      "ëģĦëŁ¬": 7139,
      "Ġê³łìĸĳìĿ´": 7140,
      "ë°°ìĥģ": 7141,
      "ĠìĦľëªħ": 7142,
      "ĠëĦĺìĸ´ìĦľ": 7143,
      "ëĤŃ": 7144,
      "74": 7145,
      "Ġì¡°íķŃ": 7146,
      "ìĬ¤íĥĢê·¸ëŀ¨": 7147,
      "Ġì²łìłĢíŀĪ": 7148,
      "ĠëĨĴê²Į": 7149,
      "íĸĪëĬĶì§Ģ": 7150,
      "ìĹĳìĬ¤": 7151,
      "ê³Ħìłķ": 7152,
      "ìĪĺì¤Ģ": 7153,
      "ĠìĹ°ìĦ¤": 7154,
      "ĠìĿ¼ìłķíķľ": 7155,
      "ëłĪëĵľ": 7156,
      "ë¿Ĳ": 7157,
      "ĠìĿ¼íķĺëĬĶ": 7158,
      "Ġëħ¸íĽĦ": 7159,
      "Ġì°¾ìĿĢ": 7160,
      "ìĸ´ëĬĲ": 7161,
      "ĠìŀĪëĬĶëį°ìļĶ": 7162,
      "Ġê´ĳìĹŃ": 7163,
      "ĠìŀĪëĬĶê°Ģ": 7164,
      "Ġê±°ëĮĢíķľ": 7165,
      "Ġìľ¼": 7166,
      "ë§¤ë§¤": 7167,
      "ëĮĢë¬¸": 7168,
      "ĠìĹ°ë´ī": 7169,
      "Ġë°°ëł¤": 7170,
      "ĠíĺķìĦ±íķĺëĬĶ": 7171,
      "ĠëĨĴìĿ¼": 7172,
      "íĻĶíķĺê³ł": 7173,
      "ĠìĿ¼ì²´": 7174,
      "ĠìŀĲìĦ¸íŀĪ": 7175,
      "ĠëĤ´ëł¸ëĭ¤": 7176,
      "íķĺìĺĢìĬµëĭĪëĭ¤": 7177,
      "ĠìĿ¼ì°į": 7178,
      "ĠâĶĥâĶĥ": 7179,
      "Ġì»¤ì§Ģê³ł": 7180,
      "ĠëĦĺê²¨": 7181,
      "Ġíķľì¸µ": 7182,
      "ë¶ĦìŀĲ": 7183,
      "Ġì»¨ìĦ¤íĮħ": 7184,
      "Ġìħĭ": 7185,
      "Ġêµ¬ë©į": 7186,
      "ĠìĪĺì£¼": 7187,
      "ĠìĤ¬ìļ©íķ´": 7188,
      "ĠìĹ°íľ´": 7189,
      "Ġìĺ¤íķ´": 7190,
      "ë°ĺìĿĳ": 7191,
      "íĮĮìĿ¼": 7192,
      "ë³į": 7193,
      "ìŀĲëĬĶ": 7194,
      "ìłľìŀĳ": 7195,
      "Ġêµ¬ìĦ±ëĲľëĭ¤": 7196,
      "ëĮĢíķĻìĽĲ": 7197,
      "Ġë¹Ĺ": 7198,
      "Ġë¯¿ê³ł": 7199,
      "íĪ°": 7200,
      "ìĿĮìĭĿ": 7201,
      "Ġëľ¨ê±°ìļ´": 7202,
      "Ġê³µëŀµ": 7203,
      "ĠìŀĦë¬´": 7204,
      "ĠìĺģìĽħ": 7205,
      "ĠíĴĢìĿ´": 7206,
      "ê·¸ëŁ¬ë¯Ģë¡ľ": 7207,
      "ĠëıĦì¶ľ": 7208,
      "Ġì°¸ìĹ¬íķł": 7209,
      "Ġì§ĳìķĪ": 7210,
      "Ġê¹Ģì¹ĺ": 7211,
      "ĠìĨĮìĥģê³µìĿ¸": 7212,
      "íĥĢìļ´": 7213,
      "ĠìĿ¼ë°©": 7214,
      "ĠëĤ®ì¶Ķ": 7215,
      "ìķħê´Ģ": 7216,
      "ë²ķë¥ł": 7217,
      "Ġíĸīë³´": 7218,
      "ìĦłìĸ¸": 7219,
      "ĠíļĮìĪĺ": 7220,
      "ĠìłĢìŀĳê¶Į": 7221,
      "Ġë°ľìĥĿíĸĪëĭ¤": 7222,
      "ìķĦëıĻ": 7223,
      "ĠëĮĢëŁī": 7224,
      "ìĭłíķľ": 7225,
      "ĠíĪ¬ìĹ¬": 7226,
      "Ġì¹©": 7227,
      "ĠìĪĺíĸīíķĺëĬĶ": 7228,
      "Ġíļ¨ìľ¨ìĦ±": 7229,
      "Ġì§ĢëıĦë¶Ģ": 7230,
      "ĠìĭľìĿ¸": 7231,
      "Ġê´ĢìĦ¸": 7232,
      "ëĿ¼ìĿ´íĬ¸": 7233,
      "ĠìĬ¬ëĿ¼ìĿ´": 7234,
      "Ġíıīê°ĢíĸĪëĭ¤": 7235,
      "Ġë³µìŀ¡íķľ": 7236,
      "ĠíĬ¹ë³ĦíŀĪ": 7237,
      "ĠìĹħì²´ëĵ¤": 7238,
      "ĠëĤ´ê²Į": 7239,
      "ĠëĮĢíķĻìĥĿ": 7240,
      "Ġë¬´íķľ": 7241,
      "ëĮĢì²´": 7242,
      "ĠëıħìĦľ": 7243,
      "ë°Ľì¹¨": 7244,
      "://": 7245,
      "ĠëĦ£ê³ł": 7246,
      "Ġê°ľêµ¬": 7247,
      "ĠìķŀëĳĶ": 7248,
      "Ġì¤ĳë¶Ģ": 7249,
      "ì¡°ê¸Ī": 7250,
      "Ġìłľê³µíķĺê¸°": 7251,
      "íļ¨ìľ¨": 7252,
      "ëĭ¤ìĸĳíķľ": 7253,
      "Ġìľłì§Ģíķĺê³ł": 7254,
      "ĠìµľìłĢìŀĦê¸Ī": 7255,
      "ëĤ¸ëĭ¤": 7256,
      "ĠìĹ¬ë¡łì¡°ìĤ¬": 7257,
      "Ġëĭ´ê²¨": 7258,
      "Ġìĥģíĸ¥": 7259,
      "Ġë¬´ë¦": 7260,
      "Ġê°Ģê³Ħ": 7261,
      "ë³´ìķĪ": 7262,
      "Ġìļ©ìĿ¸": 7263,
      "Ġê°Ģìĭľ": 7264,
      "ĠìĤ¬ë¡ľ": 7265,
      "ĠëĤĺíĥĢëĤ´": 7266,
      "ìĭ¶": 7267,
      "ë§ĪëĶĶ": 7268,
      "Ġê³¼ìĿ¼": 7269,
      "ĠíĻķìĭ¤íŀĪ": 7270,
      "Ġê²¬íķ´": 7271,
      "ìķ±": 7272,
      "ĠëĬĺê³ł": 7273,
      "ê¸ĭ": 7274,
      "ë¯¸ëĦĲ": 7275,
      "ĠìĿ¼íĻĺ": 7276,
      "Ġë§¤ì¶ľìķ¡": 7277,
      "Ġê¹ĶëģĶ": 7278,
      "Ġì¦Ŀê°Ģíķĺê³ł": 7279,
      "Ġê·¸ê³³": 7280,
      "ĠìĺĪëĬ¥": 7281,
      "ĠìķĬìķĺëįĺ": 7282,
      "ë°ľíĻĶìŀĲ": 7283,
      "ĠíķĻìĪł": 7284,
      "íı¬ëŁ¼": 7285,
      "ĠìĿ´ê±´": 7286,
      "ìŀ¡ê³ł": 7287,
      "Ġ`": 7288,
      "Ġê³łëĵ±": 7289,
      "Ġì§ĦíĸīíķĺëĬĶ": 7290,
      "Ġê¹Ģì¢ħ": 7291,
      "ĠìķĪìłĦìĦ±": 7292,
      "Ġì°¾ê³ł": 7293,
      "Ġíĸĩ": 7294,
      "ìĬĲ": 7295,
      "Ġì¦ĿëĮĢ": 7296,
      "Ġê±°ì¹ĺ": 7297,
      "Ġíıīë©´": 7298,
      "ĠëĤĺìĦ¤": 7299,
      "ìĪŃ": 7300,
      "ìĪĺìĿµ": 7301,
      "Ġê³ģ": 7302,
      "íĪ¬ìĸ´": 7303,
      "ĠëĶľ": 7304,
      "ìĪĺìĨĮ": 7305,
      "Ġê²©ë¦¬": 7306,
      "Ġì²ľìķĪ": 7307,
      "Ġìĭłíķľ": 7308,
      "Ġë¶Ģëĭ¹": 7309,
      "ĠíķĺëĭĪ": 7310,
      "Ġêµ°ìĪĺ": 7311,
      "ĠëĮĢíĳľíķĺëĬĶ": 7312,
      "Ġì§ĢìĽĲíķľëĭ¤": 7313,
      "ĠíĶĦë¡ľìĦ¸ìĦľ": 7314,
      "ĠëĤ´ë©´": 7315,
      "Ġìĺ¬ë°Ķë¥¸": 7316,
      "ĠìŀĳìłĦ": 7317,
      "ëĨĵìĿĢ": 7318,
      "ĠìĥĿê°ģíĸĪëĭ¤": 7319,
      "ĠìĦłë°°": 7320,
      "ĠëıĦëĤ´": 7321,
      "Ġìµľìĥģ": 7322,
      "Ġë²¤ì²ĺ": 7323,
      "Ġë¹Ļ": 7324,
      "ĠíĪ¬ìŀĲìŀĲ": 7325,
      "íŀĪê³ł": 7326,
      "ë¶Ħìĸĳ": 7327,
      "ê°ľìĤ¬": 7328,
      "ĠìĹ´ìĹĪëĭ¤": 7329,
      "ĠìĤ°ìĨĮ": 7330,
      "ëıĦë©´": 7331,
      "Ġë§ŀìĿĢ": 7332,
      "Ġíģ¬ê³ł": 7333,
      "ĠìĦ±ê²½": 7334,
      "ì§ĢëĤľëĭ¬": 7335,
      "ëĶ±": 7336,
      "ëĮĢë¶Ģë¶Ħ": 7337,
      "ìĭľì¼°": 7338,
      "Ġìķŀìŀ¥": 7339,
      "ĠíĻĺìľ¨": 7340,
      "ĠíĻķì¶©": 7341,
      "ĠìĦ¤ëªħìĿ´ëĭ¤": 7342,
      "ĠëĨĴìĹ¬": 7343,
      "Ġê°Ģê¹Ŀ": 7344,
      "ë§ĪìĿĮ": 7345,
      "Ġëħ¸ìĤ¬": 7346,
      "ĠíĻĶìĦ±": 7347,
      "ìĨĮë°©": 7348,
      "Ġì§Ģë¶Ī": 7349,
      "ĠíĻķìĿ¸íķĺê³ł": 7350,
      "ĠíĶĦë¦°": 7351,
      "ëĥĲê³ł": 7352,
      "ĠìĸĳìĭĿ": 7353,
      "ê°ľìĨĮ": 7354,
      "Ġë¬´ìĥģ": 7355,
      "ĠëĵľëĬĶ": 7356,
      "ê³µíĻĶ": 7357,
      "ĠëıĻë§¹": 7358,
      "ìŀ¬ë°°íı¬": 7359,
      "ëĨįìĹħ": 7360,
      "ìŀħìŀĲ": 7361,
      "ĠìĭľëĤĺ": 7362,
      "ìĨĮìŀ¬": 7363,
      "ĠëĤ´ì¸¡": 7364,
      "Ġëĭ¤ìĦ¯": 7365,
      "ĠëĥĦìĥĪ": 7366,
      "Ġëª©ìĤ¬": 7367,
      "ĠíĻĪëŁ°": 7368,
      "Ġìĭ±ê°Ģíı¬ë¥´": 7369,
      "Ġì£¼ìŀ¬": 7370,
      "Ġì¤ĳìļĶíķ©ëĭĪëĭ¤": 7371,
      "ĠëĵĢ": 7372,
      "ĠìĤ´ì§Ŀ": 7373,
      "ìĨįëıĦë¡ľ": 7374,
      "ìĭ¤íķľ": 7375,
      "Ġì¶ľíĮĲ": 7376,
      "ìĦ¸ìĿ´": 7377,
      "ĠìĿ´íĺ¼": 7378,
      "íĶĦëŀĳìĬ¤": 7379,
      "ĠìķĪìłķìĦ±": 7380,
      "ì»·": 7381,
      "Ġìłľíľ´": 7382,
      "73": 7383,
      "ëłĪìĿ¼": 7384,
      "Ġìłķë³´íĨµìĭł": 7385,
      "ĠìĤ¬ìĭľ": 7386,
      "Ġë©ĭì§Ħ": 7387,
      "ĠíķĻë¬¸": 7388,
      "Ġê·¹ìŀ¥": 7389,
      "Ġë¶Ħíķ´": 7390,
      "Ġëªħë°±": 7391,
      "ëıĮìķĦ": 7392,
      "ĠìĿ´ìłķ": 7393,
      "ìĦ¤ê³Ħ": 7394,
      "ĠìĿ¼ê´Ģ": 7395,
      "Ġê´ĢìĹ¬": 7396,
      "Ġì±Ļê²¨": 7397,
      "ĠìĪĺëĬ¥": 7398,
      "Ġìĺµìħĺ": 7399,
      "Ġìłķì²´ìĦ±": 7400,
      "ë¬¸ìŀ¬ìĿ¸": 7401,
      "ĠíĽĮë¥Ńíķľ": 7402,
      "Ġêº¾": 7403,
      "Ġì¦Ĳê¸°ëĬĶ": 7404,
      "ë±ħíģ¬": 7405,
      "ì§ĢìĿ¸": 7406,
      "ìĦ¸ëł¥": 7407,
      "Ġêµ¬ìĹŃ": 7408,
      "ĠëıĻë¶Ģ": 7409,
      "íļĮìĽĲ": 7410,
      "ĠëıĦëįķ": 7411,
      "Ġì°©ìĪĺ": 7412,
      "Ġê±´ì¶ķë¬¼": 7413,
      "ë°ľìłģ": 7414,
      "ëĦ¤ìĿ´ë²Ħ": 7415,
      "ĠìĹ°ëıĻ": 7416,
      "Ġê¹ĢìłķìĿĢ": 7417,
      "ìĺ¤ìĬ¤": 7418,
      "ĠìĿĮì£¼": 7419,
      "ĠìĤ¬ìĹħìŀ¥": 7420,
      "ĠìĽĮìĭ±íĦ´": 7421,
      "ĠìķĪìĭ¬": 7422,
      "ĠíħĶ": 7423,
      "Ġëª¬": 7424,
      "ĠíĮĮìĿ´": 7425,
      "Ġìĺ¤ìĿ¼": 7426,
      "Ġê°ķìĹ°": 7427,
      "Ġëħ¸íķĺìļ°": 7428,
      "ĠìĤ¬íļĮë³µì§Ģ": 7429,
      "íģ´ë¡ľ": 7430,
      "ĠìķĦìĽĥ": 7431,
      "Ġë¶Ģìłģ": 7432,
      "Ġì»¤íĶĮ": 7433,
      "íĻĶíķľ": 7434,
      "Ġìĭ¬íĮĲ": 7435,
      "Ġë¸Įë¦¬íķĳ": 7436,
      "íļĮìĥĿ": 7437,
      "ĠìĿĢíĩ´": 7438,
      "ë¹ħ": 7439,
      "ĠìĦłëĳĲ": 7440,
      "ëªħìĿ´ëĭ¤": 7441,
      "Ġì§Ģì¹¨": 7442,
      "Ġìĸ´íĶĮ": 7443,
      "ìĿ´ìĹĪì§Ģë§Į": 7444,
      "íĥĢìĿ´": 7445,
      "ĠíĻĶìŀ¥ìĭ¤": 7446,
      "Ġìĭľìŀĳíķľëĭ¤": 7447,
      "Ġëļ«": 7448,
      "Ġë¨¹ìĸ´": 7449,
      "ì°¸ê³ł": 7450,
      "Ġì¶¤": 7451,
      "Ġêµ¬ìĦ±ëĲĺìĸ´": 7452,
      "ĠíĬ¹ê²Ģ": 7453,
      "104": 7454,
      "ìķĦì£¼": 7455,
      "Ġë°ķìĬ¤": 7456,
      "Ġê·¹ëĭ¨": 7457,
      "Ġë§¤ëĭĪ": 7458,
      "ìķĺìĿĦ": 7459,
      "ìĥĿê°ģ": 7460,
      "Ġëĭ´ë°°": 7461,
      "ĠëĮĢíķ´ìĦł": 7462,
      "ĠëįĶíķ´": 7463,
      "Ġìºĺ": 7464,
      "ĠìĹĲìĿ´": 7465,
      "ìł¸ìĦľ": 7466,
      "íķĺê²łìĬµëĭĪëĭ¤": 7467,
      "íĦ±": 7468,
      "ë³´íĨµ": 7469,
      "Ġê²½ì£¼": 7470,
      "íħĮìĿ¼": 7471,
      "Ġê³łê°ľ": 7472,
      "ĠíĮĮíĭ°": 7473,
      "ëĬ¦": 7474,
      "ĠëıĻíķ´": 7475,
      "Ġê¸°ë²ķ": 7476,
      "Ġê¹ĢìĦ±": 7477,
      "ĠìľłëĮĢ": 7478,
      "Ġê±°ìķ¼": 7479,
      "Ġëĸ¡": 7480,
      "Ġìŀ¥ìĭĿ": 7481,
      "ĠëıĮìŀħ": 7482,
      "ĠíĥľíĴį": 7483,
      "ë°Į": 7484,
      "Ġì¢ĭê³ł": 7485,
      "Ġë³´íİ¸": 7486,
      "ĠìĪĺê¸ī": 7487,
      "ìľłì¹ĺ": 7488,
      "ĠíĤ¤ìĽĮëĵľ": 7489,
      "ĠíĬľ": 7490,
      "ĠìĿ¼ìĿ¼": 7491,
      "Ġë³´ê°ķ": 7492,
      "ĠìŀĲêµŃ": 7493,
      "Ġë¦¬ëįĶìĭŃ": 7494,
      "Ġì§ĦíĸīíĸĪëĭ¤": 7495,
      "ĠìĤ°íķĺ": 7496,
      "Ġê³¼ìŀ¥": 7497,
      "ëįľëŀĢëĵľ": 7498,
      "Ġê¸īê²©": 7499,
      "Ġì°Į": 7500,
      "ĠìĿĳê¸ī": 7501,
      "ìĦ¬ìľł": 7502,
      "114": 7503,
      "ĠìĿ´ë£¨ìĸ´ì§ĢëĬĶ": 7504,
      "ëĲĺìĹĪìľ¼ë©°": 7505,
      "ìłķì§Ģ": 7506,
      "Ġì¤ĳëıĻ": 7507,
      "ĠíĮĮìĹħ": 7508,
      "ĠìĿ½ê³ł": 7509,
      "ì§ĦíĿ¥ìĽĲ": 7510,
      "ĠíĿ°": 7511,
      "ê°ķìĽĲ": 7512,
      "ĠëĨĢìĿ´": 7513,
      "ì°½ìĹħ": 7514,
      "Ġì¢ħë¡ľ": 7515,
      "íĨµíĻĶ": 7516,
      "ìŀİ": 7517,
      "êµĲíĨµë¶Ģ": 7518,
      "ë²Ħë¦°": 7519,
      "ëłĪìĿ´íĦ°": 7520,
      "ĠëĵľëŁ¬ëĤ¬ëĭ¤": 7521,
      "Ġìľłëł¥": 7522,
      "ĠìľĦë¡ľ": 7523,
      "ì²ľë§ĮìĽĲ": 7524,
      "ë¶Ģëĵ¤": 7525,
      "ìĺĪë°©": 7526,
      "Ġë°°ìĨ¡": 7527,
      "ĠìĺĪìĻ¸": 7528,
      "Ġìľ¤ë¦¬": 7529,
      "ĠìĹ°êµ¬ê°ľë°ľ": 7530,
      "ĠëıĦì¤ĳ": 7531,
      "Ġë³Ģíĺ¸": 7532,
      "Ġíĥľìĸĳê´ĳ": 7533,
      "Ġê°Ģìķķ": 7534,
      "íķĺëĲĺ": 7535,
      "ìĵ°ê¸°": 7536,
      "ìĻĢìĦľ": 7537,
      "Ġë¶ĢíĻľ": 7538,
      "Ġíķĳ": 7539,
      "ì¤ĳëŁī": 7540,
      "ëıĻëł¥": 7541,
      "Ġë¹łì§Ħ": 7542,
      "Ġì°¨ìĦ¸ëĮĢ": 7543,
      "Ġëªħëĭ¨": 7544,
      "Ġëĵ¤ëł¤": 7545,
      "Ġë°ĺë°ķ": 7546,
      "ìľłì§Ģ": 7547,
      "Ġë³´ìĹ¬ì£¼ê³ł": 7548,
      "Ġê²©ì°¨": 7549,
      "ìĬ¤íĭ°ë²Į": 7550,
      "Ġìĭ¤ìłķ": 7551,
      "ê¶Ĳ": 7552,
      "ìĦ±ë¶Ħ": 7553,
      "ìĻ¸êµĲ": 7554,
      "Ġê²ĥìĿ´ëŀĢ": 7555,
      "ĠìĤ¬ìļ°": 7556,
      "Ġíıīë²Ķ": 7557,
      "Ġìļ©ìķ¡": 7558,
      "Ġê·¸ëŁ¬ë©´": 7559,
      "ìĤ¬íĥľ": 7560,
      "ĠìĭłìķĻ": 7561,
      "ĠëĨįì´Į": 7562,
      "ëĳĺì§¸": 7563,
      "ë©Ķë¦¬ì¹´": 7564,
      "ĠíĿĶíŀĪ": 7565,
      "Ġíķ¨ëŁī": 7566,
      "Ġìľłì§ĢíķĺëĬĶ": 7567,
      "ĠíĬ¹ìľł": 7568,
      "82": 7569,
      "ĠìĽĲìĭ¬": 7570,
      "ĠëĤĺëī": 7571,
      "ìłķê·ľì§ģ": 7572,
      "ì¡°íĬ¸": 7573,
      "ĠëĮĢë¦½": 7574,
      "ĠëĤĺíĥĢëĤ¬": 7575,
      "êµŃíĨł": 7576,
      "Ġê°ĪìĪĺë¡Ŀ": 7577,
      "Ġë³´ìĿ¼": 7578,
      "ĠìĨĮëħĦ": 7579,
      "Ġìĺ³": 7580,
      "ĠìĹ°ê²°ëĲĺìĸ´": 7581,
      "ĠëĴ¤ì§ĳ": 7582,
      "ĠíĶĮëĿ¼ìĬ¤íĭ±": 7583,
      "Ġë¹Ħíĸīê¸°": 7584,
      "ìķĦëŀĺ": 7585,
      "ĠëıĦëª¨": 7586,
      "Ġìĭ¤ìŀ¥": 7587,
      "Ġìŀ¬ëĬ¥": 7588,
      "Ġë¶ĢìłķìłģìĿ¸": 7589,
      "ĠìķĮìķĦë³´": 7590,
      "Ġê°Ģë³į": 7591,
      "ìĨĮìĨį": 7592,
      "ìĨŁ": 7593,
      "Ġë¹ĦìĦľ": 7594,
      "ĠìĹ¬ì§Ģ": 7595,
      "ĠìŀħìĤ¬": 7596,
      "Ġê³µì§ģ": 7597,
      "ìłĢíĿ¬": 7598,
      "ĠìĤ¬ëĵľ": 7599,
      "Ġë§Īíģ¬": 7600,
      "ìķĺìĸ´ìļĶ": 7601,
      "ìķĪëħķíķĺìĦ¸ìļĶ": 7602,
      "Ġë²Įìį¨": 7603,
      "ĠìĨĮì¤ĳíķľ": 7604,
      "íħĢ": 7605,
      "Ġì§ĢìĽĲíķĺê³ł": 7606,
      "Ġê²½ìĥģ": 7607,
      "ìķµì»¤": 7608,
      "íļĮê³Ħ": 7609,
      "ê°Ģìłķ": 7610,
      "êµ°ìĪĺ": 7611,
      "ĠëıħìłĲ": 7612,
      "Ġì´īêµ¬íĸĪëĭ¤": 7613,
      "Ġëļľëł·": 7614,
      "Ġ@": 7615,
      "Ġê³§ë°Ķë¡ľ": 7616,
      "ë°Ķì§Ģ": 7617,
      "ìŀ¬ëĤľ": 7618,
      "ìĿ´ëĭĿ": 7619,
      "Ġê³Ħì¢Į": 7620,
      "Ġìľłì§Ģíķł": 7621,
      "ĠìĨĮëł¨": 7622,
      "ĠìĦľìĹ´": 7623,
      "ĠìºłíĶĦ": 7624,
      "ì¨": 7625,
      "Ġíķ´ê²°íķł": 7626,
      "ê³łíķľ": 7627,
      "ĠìłĲìľłìľ¨": 7628,
      "ĠìķĦëĭĪëĿ¼ëĬĶ": 7629,
      "Ġë§Įëĵłëĭ¤": 7630,
      "Ġë°Ģìĸ´": 7631,
      "ìĿ¸ëĭ¹": 7632,
      "Ġíı¬íĨł": 7633,
      "ĠìĹ°ê·¹": 7634,
      "92": 7635,
      "ĠíĺķìĦ±ëĲľëĭ¤": 7636,
      "ìķĦíĬ¸": 7637,
      "Ġëªĩëªĩ": 7638,
      "Ġê°ľíĨµ": 7639,
      "Ľë¶Ī": 7640,
      "ë³´ëĭ¤": 7641,
      "Ġìĥģìļ©": 7642,
      "ëĭīìĬ¤": 7643,
      "ĠíĶĦëĿ¼ìĿ´": 7644,
      "ĠìĭłìŀĦ": 7645,
      "ĠìŀĲë³¸ì£¼ìĿĺ": 7646,
      "ĠëĨįê°Ģ": 7647,
      "ëĤ´ëħĦ": 7648,
      "ĠëĤĺê°ĢëĬĶ": 7649,
      "Ġíķĺê²łìĬµëĭĪëĭ¤": 7650,
      "Ġìĭłìŀ¥": 7651,
      "ëĥĲíķĺë©´": 7652,
      "ì²ŃìĤ¬": 7653,
      "Ġíİ´": 7654,
      "ĠìĹĨìľ¼ë©°": 7655,
      "ë³µì§Ģë¶Ģ": 7656,
      "ì»¤íĶ¼": 7657,
      "ĠíĿ¥íĸī": 7658,
      "76": 7659,
      "ìľłíĨµ": 7660,
      "íĻĶë¬¸": 7661,
      "ĠÎ": 7662,
      "ëĸ¡": 7663,
      "ĠìłĦëĭ´": 7664,
      "ĠëĤłìķĦ": 7665,
      "Ġëĵ¤ìĸ´ê°Ķëĭ¤": 7666,
      "ê¸ĪìĨį": 7667,
      "Ġíıīìĸĳ": 7668,
      "ëĤĺëĿ¼ëĭ¹": 7669,
      "Ġìŀ¥ëĤľ": 7670,
      "ëĲĲìľ¼ë©°": 7671,
      "Ġë¶ĢìŀĲ": 7672,
      "ëł¸ëįĺ": 7673,
      "ë°Ķëĭ¥": 7674,
      "ĠíĬ¸ëłĪìĿ´": 7675,
      "Ġì§Ħë¡ľ": 7676,
      "ìĭłìļ©": 7677,
      "ì£¼ìļĶ": 7678,
      "Ġê°ĢìŀħìŀĲ": 7679,
      "ĠíĻĶìĨĮ": 7680,
      "ĠìĻľê³¡": 7681,
      "Ġëĵłëĭ¤": 7682,
      "Ġì£¼ìĦĿ": 7683,
      "Ġëĭ¨ë¶Ģ": 7684,
      "Ġê´Ģëł¨íķ´ìĦľ": 7685,
      "ê·ľìłķ": 7686,
      "ĠìłĲìĭ¬": 7687,
      "ìĭľë§Ī": 7688,
      "ĠìĤ°ë¦¼": 7689,
      "ĠíĬ¹ì§ķìĿ´ëĭ¤": 7690,
      "ìļ°ëĵľ": 7691,
      "ìĺĪì»¨ëĮĢ": 7692,
      "Ġë°´ëĵľ": 7693,
      "ĠìķĦëĭĪëĿ¼ê³ł": 7694,
      "ëĲĺëĬĶëį°": 7695,
      "ĠìĿ¸íħĮë¦¬ìĸ´": 7696,
      "Ġíĺķìłľ": 7697,
      "ë¦¬íķľ": 7698,
      "ê²½ì°°ì²Ń": 7699,
      "ĠíĹ¤ìĸ´": 7700,
      "ìĤ¬íļĮìłģ": 7701,
      "ĠìĿĺìķ½íĴĪ": 7702,
      "ĠìĤ´íİ´ë³´ë©´": 7703,
      "Ġíļ¨ê³¼ìłģìĿ¸": 7704,
      "Ġë¶ĢìĤ¬ìŀ¥": 7705,
      "Ġìłľì¡°ìĹħ": 7706,
      "ëĿł": 7707,
      "ì¶ľì²ĺ": 7708,
      "íĮİ": 7709,
      "ĠíĥĪì¶ľ": 7710,
      "Ġê²ĢìĿĢ": 7711,
      "Ġìĭ¤ë§Ŀ": 7712,
      "ĠëģĪ": 7713,
      "ì²ľë§Į": 7714,
      "Ġìĭľê¸ī": 7715,
      "Ġê³łìłĦ": 7716,
      "ìľłëĭĽ": 7717,
      "Ġëŀĺ": 7718,
      "Ġê´Ģê°Ŀëĵ¤": 7719,
      "Ġì´īë§¤": 7720,
      "ìłķìĿĺ": 7721,
      "ĠëĮĢìĥģìŀĲ": 7722,
      "Ġëĵ¤ìĸ´ê°ĢëĬĶ": 7723,
      "ĠíĥľêµŃ": 7724,
      "Ġìķ½ê´Ģ": 7725,
      "Ġìłķíķľ": 7726,
      "Ġëĭ¤ë¥¼": 7727,
      "ìĿ¸ìĭĿ": 7728,
      "Ġëĵľë¡ł": 7729,
      "ĠìŀħìĽĲ": 7730,
      "ĠìłĢëł´íķľ": 7731,
      "Ġëĭ®": 7732,
      "ĠìĿ¸ëıĦëĦ¤ìĭľìķĦ": 7733,
      "ë§¤ì²´": 7734,
      "Ġì´Īëĵ±": 7735,
      "Ġíķ´êµ°": 7736,
      "Ġëĭ¹íķ´": 7737,
      "Ġì¡°ìĤ¬ëĲĲëĭ¤": 7738,
      "Ġì°¸ì¡°íķĺìĹ¬": 7739,
      "Ġê²½ë¹Ħ": 7740,
      "ì¡Įëįĺ": 7741,
      "ĠìķĮê³łë¦¬ì¦ĺ": 7742,
      "ĠëĨĴìĿ´ê¸°": 7743,
      "ĠíĻĶëł¤íķľ": 7744,
      "ë¸Įë¦¬ëĵľ": 7745,
      "Ġê²ĥìĿ¼": 7746,
      "ĠìĤ°ì±ħ": 7747,
      "ĠëĶĶìŀĲìĿ´ëĦĪ": 7748,
      "ìĻĶëįĺ": 7749,
      "ìĽłëįĺ": 7750,
      "ĠìĨįíķĺëĬĶ": 7751,
      "Ġë¶ĪíĻķìĭ¤": 7752,
      "ê¸°íķľ": 7753,
      "Ġìĭľíĸīëł¹": 7754,
      "Ġë©ĶíĥĢ": 7755,
      "ìķĦìĿ´ëĵ¤": 7756,
      "Ġë¯¸ìĨĮ": 7757,
      "Ġê±°ìĺĪìļĶ": 7758,
      "Ġê°Ģë¦¬": 7759,
      "ìĽĲìĿ¸": 7760,
      "Ġê¸°ë³¸ìłģìĿ¸": 7761,
      "Ġìļ©ìĤ°": 7762,
      "ëłĪìĿ´íģ¬": 7763,
      "íĪ¬ìĬ¤": 7764,
      "Ġê°Ģê¸°": 7765,
      "Ġìĭ¤ìĭľíķľ": 7766,
      "Ġëĥīìŀ¥": 7767,
      "ĠëªħíĴĪ": 7768,
      "Ġë¬´ìŀ¥": 7769,
      "Ġë»Ķ": 7770,
      "ë¯¸ëĭĪ": 7771,
      "Ġëĳĺì§¸": 7772,
      "Ġë³´ëĥĪëĭ¤": 7773,
      "Ġëª°ëł¤": 7774,
      "ĠíķŃê³µê¸°": 7775,
      "Ġê³łìĨį": 7776,
      "íķĺìĭ¤": 7777,
      "Ġíķľìª½": 7778,
      "ëłīìĬ¤": 7779,
      "Ġëħ¸ëıĻìŀĲëĵ¤": 7780,
      "Ġì§ģë©´": 7781,
      "ìĬ¤íĬ¸ëĿ¼": 7782,
      "Ġê¸īëĵ±": 7783,
      "Ġì¤ĦìĿ¼": 7784,
      "Ġë§Īì¹¨": 7785,
      "ìĺ¹": 7786,
      "Ġë°©ë¬¸íķľ": 7787,
      "ìĺĢëĬĶëį°": 7788,
      "Ġë§Īìķ½": 7789,
      "Ġê¶ĮìľĦ": 7790,
      "ĠíĮĲë§¤ëŁī": 7791,
      "ì§ĢìĭĿ": 7792,
      "Ġì°¸ìĦĿíĸĪëĭ¤": 7793,
      "ë°Ľì§Ģ": 7794,
      "Ġë§ŀì§Ģ": 7795,
      "ê·¼ë¬´": 7796,
      "êµĲíĻĺ": 7797,
      "ìĪľìĭ¤": 7798,
      "ê°Ģë£¨": 7799,
      "ĠëĲĺìĹĪê³ł": 7800,
      "ĠìĿ¼ì¸¡": 7801,
      "êµŃëĵ¤": 7802,
      "íħĮë¥´": 7803,
      "Ġëĭ¿": 7804,
      "ĠíķĦìļĶíķĺëĭ¤ëĬĶ": 7805,
      "ëĵľë¡ľìĿ´ëĵľ": 7806,
      "Ġìĭ¤ì§ĪìłģìĿ¸": 7807,
      "ĠíĸĪìĿĦ": 7808,
      "ëĨ¨ëĭ¤": 7809,
      "Ġì°°": 7810,
      "Ġê·¸ê°Ħ": 7811,
      "ìĨĮíĨµ": 7812,
      "ìłĦíĻĺ": 7813,
      "ëİ": 7814,
      "Ġì§Ģë°©ìĦłê±°": 7815,
      "ĠëĨĴìĺĢëĭ¤": 7816,
      "Ġê´ĳìŀ¥": 7817,
      "Ġìŀ¥íķĻ": 7818,
      "ĠìķĪíĮİ": 7819,
      "ĠìĤ¬ë¡ľìŀ¡": 7820,
      "íĨłë¡ł": 7821,
      "ĠëĤĺìĺ¤ì§Ģ": 7822,
      "Ġë©ķìĭľì½Ķ": 7823,
      "Ġì§ĳê¶Į": 7824,
      "Ġì½Ķìĸ´": 7825,
      "ĠíĻĺìŀĲëĵ¤": 7826,
      "ĠëłĪëĵľ": 7827,
      "Ġëĭ¹ìĤ¬ìŀĲ": 7828,
      "ì§ĢëĭĪìĸ´": 7829,
      "áħ®": 7830,
      "ĠìķĦëĭĪëĥĲëĬĶ": 7831,
      "ĠíķľêµŃìĸ´": 7832,
      "Ġë³´ìŀĲ": 7833,
      "ê·¸ëłĪìĿ´ëĵľ": 7834,
      "ìĽ¹": 7835,
      "Ġìłķë°Ģ": 7836,
      "Ġë´ĲëıĦ": 7837,
      "ĠìĭľëĤĺë¦¬ìĺ¤": 7838,
      "ĠêµŃê²½": 7839,
      "Ġëħ¼ìŁģ": 7840,
      "ĠìķĬìķĺê³ł": 7841,
      "ĠìŀĦì§ģìĽĲ": 7842,
      "ĠìŀĲìĭĿ": 7843,
      "Ġìĩł": 7844,
      "ĠìĿ´ìĸ´ì§Ģê³ł": 7845,
      "Ġíı¬ìĬ¤íĬ¸": 7846,
      "ê·¹ìłģ": 7847,
      "Ġìĺ¬ëĿ¼ê°Ģ": 7848,
      "Ġë¹ĦêµĲíķ´": 7849,
      "ĠìłĦëıĦ": 7850,
      "Ġëģĵ": 7851,
      "ĠíĬ¸ëŀľì§ĢìĬ¤íĦ°": 7852,
      "ŁìĪĺ": 7853,
      "Ġìķ¡ì²´": 7854,
      "ĠìĹĲìĬ¤": 7855,
      "ìĿ´ìľł": 7856,
      "ĠìĿ´ìĺ¨": 7857,
      "Ġë©Īì¶Ķ": 7858,
      "Ġì§ĢëĬ¥": 7859,
      "ëĬĲëĿ¼": 7860,
      "ĠìłĦëŀµìłģ": 7861,
      "ĠìĹĳ": 7862,
      "ĠëĤĺìĦłëĭ¤": 7863,
      "ĠìĹĨìĿĮ": 7864,
      "Ġëª¸ì²´": 7865,
      "Ġë°ķë¬¼ê´Ģ": 7866,
      "ĠëıĦìķ½": 7867,
      "ì²ŃìĻĢëĮĢ": 7868,
      "ĠìľłìĤ°": 7869,
      "ìµľê³ł": 7870,
      "ë³´ëıĦ": 7871,
      "ë®¬": 7872,
      "Ġì¡°êµŃ": 7873,
      "ë¦¬ëĿ¼": 7874,
      "Ġíı¬ìĬ¤íĮħ": 7875,
      "Ġìķ¡ìĦ¸ìĬ¤": 7876,
      "Ġë§¡ê³ł": 7877,
      "ĠìĿ´ìłģ": 7878,
      "ĠìĥĺíĶĮ": 7879,
      "Ġê¸°ìĺ¨": 7880,
      "ìĿĺíķĻ": 7881,
      "ë¯¼ì¡±": 7882,
      "ì½Ķìĺ¬": 7883,
      "Ġìłķë©´": 7884,
      "Ġê°ĸì¶°": 7885,
      "Ġì¹¨ì²´": 7886,
      "ëł¸ìĬµëĭĪëĭ¤": 7887,
      "ĠìĿ´íķ´íķĺê³ł": 7888,
      "Ġìĭ¤ë¦°": 7889,
      "Ġì¤ĳë°ĺ": 7890,
      "ìŀ¡ìĿ´": 7891,
      "Ġì¶ķìłģ": 7892,
      "Ġê´ĢìłĪ": 7893,
      "ĠìķĻ": 7894,
      "ìĦ±íķľ": 7895,
      "Ġë²łìĿ´ì§ķ": 7896,
      "ĠìĦłìłľ": 7897,
      "Ġêµ¬ìĦ±íķĺëĬĶ": 7898,
      "Ġë³´ê²Į": 7899,
      "Ġìĺ¤íĶĦëĿ¼ìĿ¸": 7900,
      "Ġê¸°ë¦Ħ": 7901,
      "Ġìĺ¹": 7902,
      "ĠìĦłë³Ħ": 7903,
      "ê²°íķ©": 7904,
      "ĠíĻĢë¡ľ": 7905,
      "ĠìķĬëĭ¤ëĬĶ": 7906,
      "ìĭ¬ë¦¬": 7907,
      "Ġê³łìĦ±": 7908,
      "ê²°ìłľ": 7909,
      "105": 7910,
      "Ġíľ´ëĮĢìłĦíĻĶ": 7911,
      "ĠëĪĮ": 7912,
      "ìĨĮëĵľ": 7913,
      "Ġê³µìĿµ": 7914,
      "ì¢Ģ": 7915,
      "Ġì°įìĸ´": 7916,
      "Ġëĵ±ìŀ¥íķĺëĬĶ": 7917,
      "ì¹´ì¹´ìĺ¤": 7918,
      "ĠìķĬìľ¼": 7919,
      "íĭ°ìĬ¤íĬ¸": 7920,
      "Ġê²©ëł¤": 7921,
      "Ġê¸°ìķĦ": 7922,
      "ìĹ°íķľ": 7923,
      "Ġìĸ»ìĹĪëĭ¤": 7924,
      "ĠìķĦë¦Ħëĭ¤": 7925,
      "ĠìłķìĪĺ": 7926,
      "âĢ»": 7927,
      "Ġê·¸ëŀĺíĶ½": 7928,
      "Ġêµ³ìĿ´": 7929,
      "Ġë¶ĦìŀĲ": 7930,
      "Ġê°Ģë²¼": 7931,
      "Ġëĸ¨ìĸ´ì§ĢëĬĶ": 7932,
      "Ġê¸°ì¡°": 7933,
      "Ġìĭľíĸīíķľëĭ¤": 7934,
      "Ġë§İì§Ģ": 7935,
      "ĠíĸĪëĭ¤ëĬĶ": 7936,
      "Ġì·¨íĸ¥": 7937,
      "Ġì²łíļĮ": 7938,
      "Ġëĭ¤ì§Ĳ": 7939,
      "Ġêµ¬ì¡°ë¬¼": 7940,
      "íĻĶíķł": 7941,
      "ĠíķŃìĨĮ": 7942,
      "ì¡Įëĭ¤ê³ł": 7943,
      "ìĸ¸ê°Ģ": 7944,
      "Ġë¬´ë¦İ": 7945,
      "ìĺ·": 7946,
      "Ġìĺ¤ë°Ķë§Ī": 7947,
      "ëĦ¤íĬ¸ìĽĮíģ¬": 7948,
      "ĠìĥĿê¸¸": 7949,
      "ĠìĤ´ìķĦê°ĢëĬĶ": 7950,
      "ĠìĽĲìŀĳ": 7951,
      "ë¬´íĺĦ": 7952,
      "ì²«ì§¸": 7953,
      "Ġêº¼ëĤ´": 7954,
      "ĠìĬ¤íĤ¬": 7955,
      "Ġíľ©": 7956,
      "ê±¸ìĿĮ": 7957,
      "Ġê²ªëĬĶ": 7958,
      "Ġê³łëĮĢ": 7959,
      "ĠìĨĲëĭĺ": 7960,
      "ì£¼ìĦ¸ìļĶ": 7961,
      "ëŀĺëıĦ": 7962,
      "ĠìĹ°êµ¬ìĨĮ": 7963,
      "ìĭľì²Ń": 7964,
      "Ġê¸°ìĪłëł¥": 7965,
      "87": 7966,
      "ë¦¬ëĭ¤": 7967,
      "ĠìłĦë¬¸ìĦ±": 7968,
      "ĠìķĪíħĮëĤĺ": 7969,
      "ìĤ¬ë¡Ģ": 7970,
      "Ġì¹ĺëŁ¬": 7971,
      "ìĨĮìĦ¤": 7972,
      "ëĭ¤ëŀĢ": 7973,
      "Ġì¡°ë¦¬": 7974,
      "Ġë°©ì¶ľ": 7975,
      "ĠìĿ´ëĿ¼íģ¬": 7976,
      "Ġë§Īë²ķ": 7977,
      "ĠìĻ¸ë©´": 7978,
      "Ġë¶ĦìĤ¬": 7979,
      "94": 7980,
      "Ġìŀ¬ë°Į": 7981,
      "Ġê¸°ëĮĢíķĺê³ł": 7982,
      "ìħĶëĦĲ": 7983,
      "Ġìłģì¸µ": 7984,
      "ĠëĿ¼ìĿ´íĶĦ": 7985,
      "Ġëĭ¤ì¤ĳ": 7986,
      "ë¥´ìĭł": 7987,
      "Ġìĭłìŀħ": 7988,
      "Ġê¸°ìĸ´": 7989,
      "Ġíķ¨ê»ĺíķĺëĬĶ": 7990,
      "ì¤ĳê³µìĹħ": 7991,
      "Ġì£¼ìĤ¬": 7992,
      "ĠíĮ©": 7993,
      "ëª¨íĦ°": 7994,
      "ĠëıĦë°ľ": 7995,
      "ĠìĦ¸íĥģ": 7996,
      "Ġì§ĳê³ĦëĲĲëĭ¤": 7997,
      "Ġê²¨ëĥ¥": 7998,
      "Ġë¶Īìĸ´": 7999,
      "ê²¹": 8000,
      "ê¸īìĹ¬": 8001,
      "Ġê·¸ê±¸": 8002,
      "ĠíĮ¨ëŁ¬": 8003,
      "ì§ĳëĭ¨": 8004,
      "ê·¸ëŁ¼ìĹĲëıĦ": 8005,
      "ĠìĹĺë¦¬": 8006,
      "Ġì¶Ķì§Ħíķł": 8007,
      "Ġê¹¨ëĭ¬": 8008,
      "Ġë¶Ģê°ģ": 8009,
      "ëĮĢíĸī": 8010,
      "ìĦ¤ë¹Ħ": 8011,
      "ëł¸ê³ł": 8012,
      "ë£¨ë¯¸ëĬĦ": 8013,
      "Ġì¡°íļĮ": 8014,
      "ê³±": 8015,
      "Ġìµľìķħ": 8016,
      "Ġì§Ħíĸīíķľ": 8017,
      "Ġìĭłì¤ĳ": 8018,
      "Ġë¡ľê·¸": 8019,
      "Ġì¡°ëĭ¬": 8020,
      "81": 8021,
      "Ġê°ķë¦ī": 8022,
      "Ġì°¸ìĹ¬íķ´": 8023,
      "Ġê²°ìłķíĸĪëĭ¤": 8024,
      "ĠìĿ´ìłĲ": 8025,
      "Ġë³´ëĤ´ëĬĶ": 8026,
      "íĮ¨ëĵľ": 8027,
      "ĠíĮĮìŀ¥": 8028,
      "ë§¤ìĿ¼": 8029,
      "ĠíķĦë¦¬íķĢ": 8030,
      "ì¥¬": 8031,
      "ê±°ì§Ħ": 8032,
      "ìĹĲìĬ¤": 8033,
      "ê·¼ëį°": 8034,
      "Ġíĺ¸ëĤ¨": 8035,
      "ĠíķľìĿ¼": 8036,
      "ĠëĮĢìĻ¸": 8037,
      "ìĬ¤íĨłë¦¬": 8038,
      "Ġë°ĺìłĦ": 8039,
      "Ġëª¨ë¥´ê²łëĭ¤": 8040,
      "ĠëĤ¯": 8041,
      "Ġíĺ¹ìĭľ": 8042,
      "Ġìłľê³µíķ©ëĭĪëĭ¤": 8043,
      "Ġê°ĢìłĦ": 8044,
      "Ġì§ĦíĸīëĲĺê³ł": 8045,
      "Ġë©ĶìĿ´ìłĢ": 8046,
      "ì§Ģìħĺ": 8047,
      "ë¸Įëŀľëĵľ": 8048,
      "Ġë³µìļ©": 8049,
      "ĠìľłìķĦ": 8050,
      "ì¶Ķì²ľ": 8051,
      "ĠìŀĲìłľ": 8052,
      "Ġëĭ¤ìĸĳíķĺê²Į": 8053,
      "ĠìĿ¸ìĬ¤íĥĢê·¸ëŀ¨": 8054,
      "ĠìĤ¬ìĿ´ì¦Ī": 8055,
      "ìĽ¨ëį´": 8056,
      "Ġìĥģíķĺ": 8057,
      "Ġì¤Ģê³µ": 8058,
      "ĠìłģìŀĲ": 8059,
      "Ġê²°ìłķíķł": 8060,
      "Ġì¤Ħìĸ´ëĵł": 8061,
      "Ġê¶¤": 8062,
      "ĠìľĦìĦ±": 8063,
      "ìĪĺìĪł": 8064,
      "91": 8065,
      "ìŀ¥ê¸°": 8066,
      "ëĤĺê°Ī": 8067,
      "ĠìĬ¤íİĻ": 8068,
      "ê·¹ìŀ¥": 8069,
      "ëª¨ìħĺ": 8070,
      "Ġê°ķìļĶ": 8071,
      "ĠìłĦë§ĿíĸĪëĭ¤": 8072,
      "Ġì°¸ìĤ¬": 8073,
      "ê³¨íĶĦ": 8074,
      "êµĲë¥ĺ": 8075,
      "Ġìŀ¬íĮĲë¶Ģ": 8076,
      "ĠìŀĪìľ¼": 8077,
      "íĵ¨íĮħ": 8078,
      "ĠìĻ¸êµĲë¶Ģ": 8079,
      "íĮ½": 8080,
      "ì¹«": 8081,
      "ĠíĥĢìĿ´íĭĢ": 8082,
      "ëĭ·ì»´": 8083,
      "Ġë¶ģë¶Ģ": 8084,
      "ìĪĺìļĶ": 8085,
      "Ġë©´ìłľ": 8086,
      "ĠìŀĲìľ¨ì£¼íĸī": 8087,
      "íİł": 8088,
      "ê·łíĺķ": 8089,
      "Ġë§¤ì£¼": 8090,
      "Ġë°©ì¹ĺ": 8091,
      "ëĤĺê³ł": 8092,
      "ĠìĿ¸ìĹ°": 8093,
      "Ġìĭľëĭ¬": 8094,
      "Ġë§Ĳíķĺê³ł": 8095,
      "ĠìĤ¬ë¬´ì´Ŀìŀ¥": 8096,
      "ìĿĳëĭµ": 8097,
      "Ġìĭ¬íķľ": 8098,
      "íıŃíĸī": 8099,
      "ĠìĿ´ëģĦëĬĶ": 8100,
      "ĠíĦ°íĤ¤": 8101,
      "Ġìķ¼ìĻ¸": 8102,
      "ĠíĦ¸ìĸ´": 8103,
      "Ġê´Ģíķł": 8104,
      "Ġì²Ńì£¼": 8105,
      "ĠìĿ´ë¥´ê¸°": 8106,
      "ĠìĤ¬ìĭ¤ìĿ´ëĭ¤": 8107,
      "131": 8108,
      "ìĽĲìŀĲ": 8109,
      "Ġìĭ¤ì¢ħ": 8110,
      "ĠìĥĿê¸°ëĬĶ": 8111,
      "Ġê°Ģì¡Įëĭ¤": 8112,
      "Ġê³łë¬´": 8113,
      "ì£¼ë¡ľ": 8114,
      "ê²ģê²Į": 8115,
      "ì»´íĵ¨íĦ°": 8116,
      "Ġì§Ħìĥģ": 8117,
      "Ġíķłëĭ¹": 8118,
      "ìłĦë¬¸ê°Ģ": 8119,
      "ĠíķĺëĤĺìĿ¸": 8120,
      "Ġê³ĦìłĪ": 8121,
      "ĠìĻĦë²½íķľ": 8122,
      "ĠìĹ°íķ©ëī´ìĬ¤": 8123,
      "Ġë¶Ģìĭ¤": 8124,
      "âĻ": 8125,
      "ĠëĮĢê±°": 8126,
      "Ġìĵ°ê¸°": 8127,
      "Ġëĭ¹ëĩ¨": 8128,
      "ìĬ¤ì¹´": 8129,
      "íİĺëĭĲ": 8130,
      "ë¶Ģëĭ´": 8131,
      "ìĿ¼ìŀĲ": 8132,
      "Ġê²ĥìŀĦ": 8133,
      "ìłĦìĦł": 8134,
      "Ġê¹¨ëĭ«": 8135,
      "ĠíķĺëĵľìĽ¨ìĸ´": 8136,
      "ìĭ¤ìłĲ": 8137,
      "ĠíĶĮëłĪìĿ´ìĸ´": 8138,
      "Ġì½Ķì¹ĺ": 8139,
      "ĠìĿ´ê¸°": 8140,
      "113": 8141,
      "Ġìĭ«ìĸ´": 8142,
      "Ġë°ĶëĶĶ": 8143,
      "ĠìĬ¤íĶĦë§ģ": 8144,
      "Ġìľłì²´": 8145,
      "ëį°ìĬ¤": 8146,
      "ĠìĿ´ìĸ´ì¡Įëĭ¤": 8147,
      "Ġìĭľìŀĳíķ´": 8148,
      "ëįĶìĬ¤": 8149,
      "ìĦ¸ìłĲ": 8150,
      "Ġë¶Ģì´Ŀë¦¬": 8151,
      "Ġìľ¡ìķĦ": 8152,
      "ĠìĤ¬ìļ©ìŀĲëĵ¤": 8153,
      "ĠìĭłíĻĶ": 8154,
      "ĠìĨĶì§ģ": 8155,
      "íķĺìħ¨": 8156,
      "ëª¨ìĶ¨": 8157,
      "Ġêµ¬ìĦ±ìĽĲ": 8158,
      "ĠëĤ´ìĻ¸": 8159,
      "Ġìļ´ìĨ¡": 8160,
      "Ġì§ĦíĸīëĲĲëĭ¤": 8161,
      "ĠìĦľì´Ī": 8162,
      "Ġê²ĥìĿ´ê¸°": 8163,
      "ìłĦíĺķ": 8164,
      "ìĤ¬ìĥģ": 8165,
      "Ġìĥģë¬´": 8166,
      "íĨµìłľ": 8167,
      "ìĥµ": 8168,
      "Ġëĵ¤ìĸ´ìĺ¤": 8169,
      "Ġì°¨ê¸°": 8170,
      "Ġë¶Ģê°Ģ": 8171,
      "Ġë¬¸êµ¬": 8172,
      "ì²ľìĽĲ": 8173,
      "ìŀ¬ìłķë¶Ģ": 8174,
      "Ġìĸ¸ê¸īíķľ": 8175,
      "ëĦ¤ìĿ´íĬ¸": 8176,
      "ëıĻê¸°": 8177,
      "Ġê²½ê³¼": 8178,
      "Ġíķ´ì²´": 8179,
      "Ġê¿Īê¾¸": 8180,
      "ë¡ľìĽĢ": 8181,
      "ëĶ¸": 8182,
      "ĠìĥģìĬ¹ìĦ¸": 8183,
      "Ġíķ´ìķĪ": 8184,
      "ìĺ¤ìĹ¼": 8185,
      "ĠìĤ¬ìļ©íķĺì§Ģ": 8186,
      "ëłĺ": 8187,
      "Ġê°ľë°ľìŀĲ": 8188,
      "Ġê²°ìĭ¬": 8189,
      "330": 8190,
      "ì´¬ìĺģ": 8191,
      "Ġë²ķë¬´": 8192,
      "íķ©ìĿĺ": 8193,
      "ìĤ¬ë²ķ": 8194,
      "ìķłíĶĮ": 8195,
      "íĶĦëłĪ": 8196,
      "ĠìķĪìłĦíķĺê²Į": 8197,
      "Ġíĩ´ì§ģ": 8198,
      "ĠíĥĦëł¥": 8199,
      "ìĹ¬ë¦Ħ": 8200,
      "Ġìķ¡ìłķ": 8201,
      "Ġë§ĺ": 8202,
      "ĠìĪĺì¤ĢìĿ´ëĭ¤": 8203,
      "Ġë°°ìĹ´": 8204,
      "ĠìĻ¸ì¸¡": 8205,
      "ëĮĢìĿĳ": 8206,
      "ìŀ¬íķ´": 8207,
      "ë°©ìĹŃ": 8208,
      "Ġíķ´ìĪĺ": 8209,
      "ë©ĶìĿ´": 8210,
      "Ġê°ķíĻĶíķĺê³ł": 8211,
      "Ġë¬¸íĻĶìĺĪìĪł": 8212,
      "âī": 8213,
      "íı´ë¦¬": 8214,
      "Ġê´ĳíķĻ": 8215,
      "Ġë°±ìķħê´Ģ": 8216,
      "Ġìŀ¬ë°ľ": 8217,
      "ĠìĨĮìĿĮ": 8218,
      "Ġìĩ¼íķĳëª°": 8219,
      "ĠìĶ»": 8220,
      "ĠëıĦìĦľ": 8221,
      "ĠìĹħê·¸ëłĪìĿ´ëĵľ": 8222,
      "Ġë³ĳíĸī": 8223,
      "Ġì¤ĦìĹĪëĭ¤": 8224,
      "Ġì§ĢëĤĺì¹ĺê²Į": 8225,
      "Ġíİ¸ìĿ´ëĭ¤": 8226,
      "Ġìĵ°ëŁ¬": 8227,
      "íĴĪì§Ī": 8228,
      "ìĸ´ë¦°ìĿ´": 8229,
      "ĠêµŃë¬´ì´Ŀë¦¬": 8230,
      "ĠìĥģìĦ¸íķĺê²Į": 8231,
      "ìŀĳíĴĪ": 8232,
      "ë¸Ķë¦¬": 8233,
      "ì»¤ìĬ¤": 8234,
      "Ġíķľê¸Ģ": 8235,
      "íĿĳ": 8236,
      "Ġë°ĺìĦ±": 8237,
      "ĠëŃĺ": 8238,
      "ìĸ´ë§ģ": 8239,
      "ĠëĳĺëŁ¬ìĭ¸": 8240,
      "ìłľì¡°": 8241,
      "ĠëıĦìĸ´": 8242,
      "ĠìŀĪê±°ëĤĺ": 8243,
      "Ġë¹Ħë¦¬": 8244,
      "ĠìĥĿìĤ°ìĦ±": 8245,
      "Ġì£¼ìŀ¥íķĺëĬĶ": 8246,
      "ë©ľ": 8247,
      "Ġê°Ģë°©": 8248,
      "ëª¨ëĳĲ": 8249,
      "Ġìĸ´ì©Ķ": 8250,
      "Ġìĭľë¦¬ìķĦ": 8251,
      "Ġë³¸íļĮìĿĺ": 8252,
      "ĠìļĶêµ¬íĸĪëĭ¤": 8253,
      "ĠìĨĲê°ĢëĿ½": 8254,
      "Ġë°±íĻĶìłĲ": 8255,
      "ìĿ¸ìĥģ": 8256,
      "Ġìŀĳê³¡": 8257,
      "íĨ¨ë¦Ń": 8258,
      "êµ¬ê¸Ģ": 8259,
      "Ġê·¸ëŁ¬ëĭĪê¹Į": 8260,
      "ĠìĹ¬íĮĮ": 8261,
      "Ġìĸĳê·¹": 8262,
      "Ġì¶©ì²Ń": 8263,
      "ĠìłĦìĭľíļĮ": 8264,
      "ĠìĨĮëª¨": 8265,
      "Ġëĭ´ë³´": 8266,
      "ÃĹ": 8267,
      "Ġê°±": 8268,
      "Ġë¦¬ìĬ¤íģ¬": 8269,
      "ëĦĵ": 8270,
      "Ġê°ľíĹĮ": 8271,
      "Ġìĺ¤íĨł": 8272,
      "ê³Ħìĺ¬ë¦¼íĶ½": 8273,
      "ìłĦìļ©": 8274,
      "132": 8275,
      "ĠíķĦìļĶíķł": 8276,
      "Ġì¦Ŀìĸ¸": 8277,
      "ì´Īëĵ±íķĻêµĲ": 8278,
[...]
